{
  "version": "1.0",
  "truncation": null,
  "padding": null,
  "added_tokens": [
    {
      "id": 0,
      "content": "<pad>",
      "single_word": false,
      "lstrip": false,
      "rstrip": false,
      "normalized": false,
      "special": true
    },
    {
      "id": 1,
      "content": "<sos>",
      "single_word": false,
      "lstrip": false,
      "rstrip": false,
      "normalized": false,
      "special": true
    },
    {
      "id": 2,
      "content": "<eos>",
      "single_word": false,
      "lstrip": false,
      "rstrip": false,
      "normalized": false,
      "special": true
    },
    {
      "id": 3,
      "content": "<unk>",
      "single_word": false,
      "lstrip": false,
      "rstrip": false,
      "normalized": false,
      "special": true
    }
  ],
  "normalizer": null,
  "pre_tokenizer": {
    "type": "Whitespace"
  },
  "post_processor": {
    "type": "TemplateProcessing",
    "single": [
      {
        "SpecialToken": {
          "id": "<sos>",
          "type_id": 0
        }
      },
      {
        "Sequence": {
          "id": "A",
          "type_id": 0
        }
      },
      {
        "SpecialToken": {
          "id": "<eos>",
          "type_id": 0
        }
      }
    ],
    "pair": [
      {
        "Sequence": {
          "id": "A",
          "type_id": 0
        }
      },
      {
        "Sequence": {
          "id": "B",
          "type_id": 1
        }
      }
    ],
    "special_tokens": {
      "<eos>": {
        "id": "<eos>",
        "ids": [
          2
        ],
        "tokens": [
          "<eos>"
        ]
      },
      "<sos>": {
        "id": "<sos>",
        "ids": [
          1
        ],
        "tokens": [
          "<sos>"
        ]
      }
    }
  },
  "decoder": null,
  "model": {
    "type": "BPE",
    "dropout": null,
    "unk_token": "<unk>",
    "continuing_subword_prefix": null,
    "end_of_word_suffix": null,
    "fuse_unk": false,
    "byte_fallback": false,
    "ignore_merges": false,
    "vocab": {
      "<pad>": 0,
      "<sos>": 1,
      "<eos>": 2,
      "<unk>": 3,
      "!": 4,
      "\"": 5,
      "#": 6,
      "$": 7,
      "%": 8,
      "&": 9,
      "'": 10,
      "(": 11,
      ")": 12,
      "*": 13,
      "+": 14,
      ",": 15,
      "-": 16,
      ".": 17,
      "/": 18,
      "0": 19,
      "1": 20,
      "2": 21,
      "3": 22,
      "4": 23,
      "5": 24,
      "6": 25,
      "7": 26,
      "8": 27,
      "9": 28,
      ":": 29,
      ";": 30,
      "<": 31,
      "=": 32,
      ">": 33,
      "?": 34,
      "@": 35,
      "A": 36,
      "B": 37,
      "C": 38,
      "D": 39,
      "E": 40,
      "F": 41,
      "G": 42,
      "H": 43,
      "I": 44,
      "J": 45,
      "K": 46,
      "L": 47,
      "M": 48,
      "N": 49,
      "O": 50,
      "P": 51,
      "Q": 52,
      "R": 53,
      "S": 54,
      "T": 55,
      "U": 56,
      "V": 57,
      "W": 58,
      "X": 59,
      "Y": 60,
      "Z": 61,
      "[": 62,
      "\\": 63,
      "]": 64,
      "^": 65,
      "_": 66,
      "`": 67,
      "a": 68,
      "b": 69,
      "c": 70,
      "d": 71,
      "e": 72,
      "f": 73,
      "g": 74,
      "h": 75,
      "i": 76,
      "j": 77,
      "k": 78,
      "l": 79,
      "m": 80,
      "n": 81,
      "o": 82,
      "p": 83,
      "q": 84,
      "r": 85,
      "s": 86,
      "t": 87,
      "u": 88,
      "v": 89,
      "w": 90,
      "x": 91,
      "y": 92,
      "z": 93,
      "{": 94,
      "|": 95,
      "~": 96,
      "¡": 97,
      "£": 98,
      "¯": 99,
      "°": 100,
      "´": 101,
      "·": 102,
      "º": 103,
      "½": 104,
      "É": 105,
      "Í": 106,
      "×": 107,
      "à": 108,
      "á": 109,
      "â": 110,
      "ã": 111,
      "ç": 112,
      "è": 113,
      "é": 114,
      "ì": 115,
      "í": 116,
      "î": 117,
      "ó": 118,
      "ö": 119,
      "ø": 120,
      "ü": 121,
      "ý": 122,
      "ă": 123,
      "ą": 124,
      "ć": 125,
      "č": 126,
      "Ę": 127,
      "ę": 128,
      "ķ": 129,
      "Ĺ": 130,
      "ł": 131,
      "ń": 132,
      "ō": 133,
      "ś": 134,
      "Ż": 135,
      "ż": 136,
      "ž": 137,
      "ș": 138,
      "ʖ": 139,
      "ʘ": 140,
      "̀": 141,
      "́": 142,
      "̯": 143,
      "̿": 144,
      "͜": 145,
      "͟": 146,
      "͠": 147,
      "͡": 148,
      "Θ": 149,
      "Σ": 150,
      "ε": 151,
      "θ": 152,
      "σ": 153,
      "φ": 154,
      "ω": 155,
      "Д": 156,
      "д": 157,
      "щ": 158,
      "ل": 159,
      "٩": 160,
      "۶": 161,
      "ಠ": 162,
      "ಥ": 163,
      "ง": 164,
      "༼": 165,
      "༽": 166,
      "ლ": 167,
      "ᵔ": 168,
      "ọ": 169,
      "‍": 170,
      "‎": 171,
      "‑": 172,
      "–": 173,
      "—": 174,
      "‘": 175,
      "’": 176,
      "“": 177,
      "”": 178,
      "„": 179,
      "•": 180,
      "…": 181,
      "′": 182,
      "‸": 183,
      "‼": 184,
      "‿": 185,
      "€": 186,
      "∀": 187,
      "∇": 188,
      "≦": 189,
      "≧": 190,
      "⊂": 191,
      "⊃": 192,
      "⌒": 193,
      "⌣": 194,
      "⏱": 195,
      "⑩": 196,
      "─": 197,
      "━": 198,
      "┌": 199,
      "┏": 200,
      "┐": 201,
      "┓": 202,
      "┗": 203,
      "┛": 204,
      "┬": 205,
      "┻": 206,
      "╬": 207,
      "╯": 208,
      "▀": 209,
      "□": 210,
      "▽": 211,
      "◇": 212,
      "○": 213,
      "◎": 214,
      "●": 215,
      "◔": 216,
      "◕": 217,
      "◠": 218,
      "◡": 219,
      "☀": 220,
      "☂": 221,
      "☆": 222,
      "☔": 223,
      "☕": 224,
      "☘": 225,
      "☜": 226,
      "☝": 227,
      "☞": 228,
      "☠": 229,
      "☢": 230,
      "☹": 231,
      "☺": 232,
      "♀": 233,
      "♂": 234,
      "♥": 235,
      "♪": 236,
      "♻": 237,
      "⚪": 238,
      "⚫": 239,
      "⚰": 240,
      "⛄": 241,
      "✅": 242,
      "✊": 243,
      "✌": 244,
      "✨": 245,
      "✿": 246,
      "❄": 247,
      "❌": 248,
      "❓": 249,
      "❣": 250,
      "❤": 251,
      "➡": 252,
      "⬛": 253,
      "⭐": 254,
      "。": 255,
      "〆": 256,
      "つ": 257,
      "゜": 258,
      "ゝ": 259,
      "ゞ": 260,
      "ェ": 261,
      "エ": 262,
      "キ": 263,
      "コ": 264,
      "タ": 265,
      "ツ": 266,
      "ノ": 267,
      "ヘ": 268,
      "ム": 269,
      "メ": 270,
      "ラ": 271,
      "レ": 272,
      "ロ": 273,
      "ヮ": 274,
      "・": 275,
      "ー": 276,
      "ヽ": 277,
      "ヾ": 278,
      "ㅂ": 279,
      "一": 280,
      "丶": 281,
      "丿": 282,
      "二": 283,
      "屮": 284,
      "彡": 285,
      "皿": 286,
      "益": 287,
      "自": 288,
      "쁜": 289,
      "예": 290,
      "척": 291,
      "": 292,
      "": 293,
      "": 294,
      "": 295,
      "️": 296,
      "︵": 297,
      "﹏": 298,
      "﻿": 299,
      "！": 300,
      "＃": 301,
      "（": 302,
      "）": 303,
      "＊": 304,
      "－": 305,
      "／": 306,
      "；": 307,
      "＠": 308,
      "Ａ": 309,
      "Ｔ": 310,
      "＼": 311,
      "＾": 312,
      "＿": 313,
      "｀": 314,
      "ｏ": 315,
      "ｕ": 316,
      "ｖ": 317,
      "～": 318,
      "｡": 319,
      "･": 320,
      "ﾉ": 321,
      "ﾐ": 322,
      "ﾟ": 323,
      "￣": 324,
      "￥": 325,
      "🇨": 326,
      "🇫": 327,
      "🇬": 328,
      "🇮": 329,
      "🇳": 330,
      "🇴": 331,
      "🇷": 332,
      "🇸": 333,
      "🌊": 334,
      "🌎": 335,
      "🌜": 336,
      "🌞": 337,
      "🌟": 338,
      "🌠": 339,
      "🌴": 340,
      "🌸": 341,
      "🌹": 342,
      "🌺": 343,
      "🌿": 344,
      "🍄": 345,
      "🍅": 346,
      "🍆": 347,
      "🍉": 348,
      "🍋": 349,
      "🍌": 350,
      "🍑": 351,
      "🍒": 352,
      "🍓": 353,
      "🍔": 354,
      "🍦": 355,
      "🍫": 356,
      "🍭": 357,
      "🍰": 358,
      "🍷": 359,
      "🍸": 360,
      "🍹": 361,
      "🍺": 362,
      "🍻": 363,
      "🍾": 364,
      "🎂": 365,
      "🎃": 366,
      "🎄": 367,
      "🎅": 368,
      "🎆": 369,
      "🎉": 370,
      "🎊": 371,
      "🎥": 372,
      "🎶": 373,
      "🎼": 374,
      "🏆": 375,
      "🏋": 376,
      "🏖": 377,
      "🏝": 378,
      "🏧": 379,
      "🏴": 380,
      "🏻": 381,
      "🏼": 382,
      "🏽": 383,
      "🏾": 384,
      "🏿": 385,
      "🐇": 386,
      "🐈": 387,
      "🐉": 388,
      "🐍": 389,
      "🐔": 390,
      "🐝": 391,
      "🐟": 392,
      "🐬": 393,
      "🐮": 394,
      "🐰": 395,
      "🐱": 396,
      "🐳": 397,
      "🐶": 398,
      "🐷": 399,
      "🐻": 400,
      "🐼": 401,
      "🐾": 402,
      "👀": 403,
      "👋": 404,
      "👌": 405,
      "👍": 406,
      "👏": 407,
      "👑": 408,
      "👧": 409,
      "👮": 410,
      "👯": 411,
      "👱": 412,
      "👴": 413,
      "👶": 414,
      "👸": 415,
      "👹": 416,
      "👺": 417,
      "👻": 418,
      "👼": 419,
      "👽": 420,
      "💀": 421,
      "💁": 422,
      "💃": 423,
      "💄": 424,
      "💇": 425,
      "💊": 426,
      "💋": 427,
      "💑": 428,
      "💒": 429,
      "💓": 430,
      "💔": 431,
      "💕": 432,
      "💖": 433,
      "💗": 434,
      "💙": 435,
      "💚": 436,
      "💛": 437,
      "💜": 438,
      "💞": 439,
      "💤": 440,
      "💥": 441,
      "💦": 442,
      "💩": 443,
      "💪": 444,
      "💯": 445,
      "💵": 446,
      "💶": 447,
      "💸": 448,
      "📜": 449,
      "📺": 450,
      "🔑": 451,
      "🔝": 452,
      "🔥": 453,
      "🔫": 454,
      "🔴": 455,
      "🕵": 456,
      "🕷": 457,
      "🖐": 458,
      "🖕": 459,
      "🖤": 460,
      "🗺": 461,
      "😀": 462,
      "😁": 463,
      "😂": 464,
      "😃": 465,
      "😄": 466,
      "😅": 467,
      "😆": 468,
      "😇": 469,
      "😈": 470,
      "😉": 471,
      "😊": 472,
      "😋": 473,
      "😌": 474,
      "😍": 475,
      "😎": 476,
      "😏": 477,
      "😐": 478,
      "😑": 479,
      "😒": 480,
      "😓": 481,
      "😔": 482,
      "😕": 483,
      "😖": 484,
      "😗": 485,
      "😘": 486,
      "😙": 487,
      "😚": 488,
      "😛": 489,
      "😜": 490,
      "😝": 491,
      "😞": 492,
      "😟": 493,
      "😠": 494,
      "😡": 495,
      "😢": 496,
      "😣": 497,
      "😤": 498,
      "😥": 499,
      "😧": 500,
      "😨": 501,
      "😩": 502,
      "😪": 503,
      "😫": 504,
      "😬": 505,
      "😭": 506,
      "😮": 507,
      "😯": 508,
      "😰": 509,
      "😱": 510,
      "😲": 511,
      "😳": 512,
      "😴": 513,
      "😵": 514,
      "😶": 515,
      "😷": 516,
      "😸": 517,
      "😹": 518,
      "😺": 519,
      "😻": 520,
      "😽": 521,
      "🙀": 522,
      "🙁": 523,
      "🙂": 524,
      "🙃": 525,
      "🙄": 526,
      "🙆": 527,
      "🙇": 528,
      "🙈": 529,
      "🙉": 530,
      "🙊": 531,
      "🙋": 532,
      "🙌": 533,
      "🙍": 534,
      "🙎": 535,
      "🙏": 536,
      "🚀": 537,
      "🚣": 538,
      "🚬": 539,
      "🚱": 540,
      "🛌": 541,
      "🤐": 542,
      "🤑": 543,
      "🤒": 544,
      "🤓": 545,
      "🤔": 546,
      "🤕": 547,
      "🤖": 548,
      "🤗": 549,
      "🤘": 550,
      "🤙": 551,
      "🤝": 552,
      "🤞": 553,
      "🤟": 554,
      "🤡": 555,
      "🤢": 556,
      "🤣": 557,
      "🤤": 558,
      "🤦": 559,
      "🤧": 560,
      "🤨": 561,
      "🤩": 562,
      "🤪": 563,
      "🤫": 564,
      "🤬": 565,
      "🤭": 566,
      "🤮": 567,
      "🤯": 568,
      "🤴": 569,
      "🤵": 570,
      "🤷": 571,
      "🤸": 572,
      "🤼": 573,
      "🥁": 574,
      "🥂": 575,
      "🥃": 576,
      "🥇": 577,
      "🥒": 578,
      "🥕": 579,
      "🥗": 580,
      "🥝": 581,
      "🥞": 582,
      "🥪": 583,
      "🥰": 584,
      "🥳": 585,
      "🥵": 586,
      "🦄": 587,
      "🦊": 588,
      "🦌": 589,
      "🦐": 590,
      "🧒": 591,
      "🧓": 592,
      "🧘": 593,
      "🧙": 594,
      "🧡": 595,
      "🧺": 596,
      "th": 597,
      "in": 598,
      "an": 599,
      "ou": 600,
      "re": 601,
      "on": 602,
      "er": 603,
      "at": 604,
      "to": 605,
      "the": 606,
      "ll": 607,
      "ing": 608,
      "me": 609,
      "is": 610,
      "or": 611,
      "ar": 612,
      "it": 613,
      "you": 614,
      "en": 615,
      "he": 616,
      "st": 617,
      "le": 618,
      "ha": 619,
      "and": 620,
      "ve": 621,
      "ay": 622,
      "no": 623,
      "be": 624,
      "as": 625,
      "ic": 626,
      "es": 627,
      "ed": 628,
      "wi": 629,
      "so": 630,
      "se": 631,
      "go": 632,
      "et": 633,
      "we": 634,
      "li": 635,
      "for": 636,
      "ho": 637,
      "ac": 638,
      "ro": 639,
      "ke": 640,
      "al": 641,
      "id": 642,
      "of": 643,
      "ut": 644,
      "..": 645,
      "all": 646,
      "ne": 647,
      "are": 648,
      "gh": 649,
      "ld": 650,
      "ri": 651,
      "that": 652,
      "lo": 653,
      "hat": 654,
      "do": 655,
      "co": 656,
      "ad": 657,
      "am": 658,
      "ly": 659,
      "will": 660,
      "ab": 661,
      "now": 662,
      "out": 663,
      "have": 664,
      "ok": 665,
      "ch": 666,
      "nd": 667,
      "ti": 668,
      "ght": 669,
      "ver": 670,
      "im": 671,
      "ie": 672,
      "ry": 673,
      "one": 674,
      "my": 675,
      "with": 676,
      "but": 677,
      "ould": 678,
      "can": 679,
      "day": 680,
      "su": 681,
      "te": 682,
      "ir": 683,
      "ust": 684,
      "od": 685,
      "not": 686,
      "some": 687,
      "el": 688,
      "know": 689,
      "Mar": 690,
      "la": 691,
      "ant": 692,
      "ah": 693,
      "was": 694,
      "us": 695,
      "ter": 696,
      "thing": 697,
      "if": 698,
      "her": 699,
      "ill": 700,
      "mo": 701,
      "end": 702,
      "au": 703,
      "ink": 704,
      "ally": 705,
      "ther": 706,
      "about": 707,
      "what": 708,
      "ia": 709,
      "wor": 710,
      "Jo": 711,
      "sh": 712,
      "fe": 713,
      "don": 714,
      "na": 715,
      "ate": 716,
      "wh": 717,
      "ra": 718,
      "pe": 719,
      "this": 720,
      "ion": 721,
      "ank": 722,
      "any": 723,
      "ge": 724,
      "up": 725,
      "ma": 726,
      "ick": 727,
      "The": 728,
      "pp": 729,
      "just": 730,
      "...": 731,
      "om": 732,
      "An": 733,
      "ack": 734,
      "like": 735,
      "get": 736,
      "she": 737,
      "un": 738,
      "ile": 739,
      "ye": 740,
      "ine": 741,
      "pl": 742,
      "there": 743,
      "want": 744,
      "your": 745,
      "think": 746,
      "ce": 747,
      "!!": 748,
      "ent": 749,
      "time": 750,
      "nt": 751,
      "sa": 752,
      "our": 753,
      "ice": 754,
      "ind": 755,
      "He": 756,
      "No": 757,
      "ta": 758,
      "see": 759,
      "de": 760,
      "ol": 761,
      "art": 762,
      "they": 763,
      "ur": 764,
      "ck": 765,
      "ob": 766,
      "pro": 767,
      "going": 768,
      "Ch": 769,
      "way": 770,
      "It": 771,
      "ight": 772,
      "did": 773,
      "il": 774,
      "here": 775,
      "bo": 776,
      "work": 777,
      "very": 778,
      ":)": 779,
      "ag": 780,
      "ex": 781,
      "ss": 782,
      "com": 783,
      "need": 784,
      "You": 785,
      "rom": 786,
      "ow": 787,
      "ris": 788,
      "file": 789,
      "has": 790,
      "his": 791,
      "how": 792,
      "And": 793,
      "from": 794,
      "good": 795,
      "op": 796,
      "We": 797,
      "too": 798,
      "uy": 799,
      "ard": 800,
      "come": 801,
      "ess": 802,
      "mor": 803,
      "file_": 804,
      "row": 805,
      "him": 806,
      "got": 807,
      "What": 808,
      "ound": 809,
      "ven": 810,
      "con": 811,
      "ek": 812,
      "really": 813,
      "ue": 814,
      "would": 815,
      "ide": 816,
      "week": 817,
      "per": 818,
      "Th": 819,
      "new": 820,
      "meet": 821,
      "mu": 822,
      "pre": 823,
      "ct": 824,
      "af": 825,
      "ace": 826,
      "anks": 827,
      "Tom": 828,
      "po": 829,
      "them": 830,
      "ber": 831,
      "red": 832,
      "other": 833,
      "ation": 834,
      "sure": 835,
      "che": 836,
      "haha": 837,
      "Ye": 838,
      "read": 839,
      "ite": 840,
      "reat": 841,
      "ure": 842,
      "look": 843,
      "ina": 844,
      "then": 845,
      "ble": 846,
      "right": 847,
      "by": 848,
      "fo": 849,
      "ive": 850,
      "when": 851,
      "should": 852,
      "av": 853,
      "alk": 854,
      "Al": 855,
      "Lu": 856,
      "let": 857,
      "ig": 858,
      "ave": 859,
      "Joh": 860,
      "morrow": 861,
      "um": 862,
      "Car": 863,
      "ny": 864,
      "tomorrow": 865,
      "ame": 866,
      "back": 867,
      "hel": 868,
      "John": 869,
      "ong": 870,
      "She": 871,
      "xt": 872,
      "act": 873,
      "lie": 874,
      "Fr": 875,
      "Ju": 876,
      "more": 877,
      "part": 878,
      "home": 879,
      "ty": 880,
      "So": 881,
      "Chris": 882,
      "pho": 883,
      "wa": 884,
      "photo": 885,
      "much": 886,
      "had": 887,
      "ask": 888,
      "aybe": 889,
      "ul": 890,
      "take": 891,
      "ass": 892,
      "But": 893,
      "does": 894,
      "sc": 895,
      "well": 896,
      "off": 897,
      "cau": 898,
      "Pet": 899,
      "Ok": 900,
      "ous": 901,
      "ast": 902,
      "been": 903,
      "ple": 904,
      "ian": 905,
      "could": 906,
      "love": 907,
      "after": 908,
      "Yeah": 909,
      "Yes": 910,
      "today": 911,
      "cause": 912,
      "ep": 913,
      "ike": 914,
      "talk": 915,
      "something": 916,
      "ough": 917,
      "ain": 918,
      "ment": 919,
      "How": 920,
      "ph": 921,
      "every": 922,
      "happ": 923,
      "Dan": 924,
      "sp": 925,
      "ily": 926,
      "br": 927,
      "Em": 928,
      "Pau": 929,
      "say": 930,
      "ee": 931,
      "lly": 932,
      "ton": 933,
      "That": 934,
      "Jan": 935,
      "They": 936,
      "wait": 937,
      "orry": 938,
      "Sam": 939,
      "yeah": 940,
      "tr": 941,
      "??": 942,
      "ff": 943,
      "ica": 944,
      "yes": 945,
      "Wh": 946,
      "great": 947,
      "won": 948,
      "last": 949,
      "ers": 950,
      "ish": 951,
      "Oh": 952,
      "than": 953,
      "Kate": 954,
      "qu": 955,
      "call": 956,
      "ara": 957,
      "ready": 958,
      "next": 959,
      "even": 960,
      "oo": 961,
      "ning": 962,
      "bet": 963,
      "ought": 964,
      "ase": 965,
      "buy": 966,
      "who": 967,
      "still": 968,
      "Hi": 969,
      "make": 970,
      "man": 971,
      "fri": 972,
      "where": 973,
      "why": 974,
      "uck": 975,
      "wat": 976,
      "cy": 977,
      "didn": 978,
      "ort": 979,
      "friend": 980,
      "lot": 981,
      "help": 982,
      "tell": 983,
      "gr": 984,
      "Jack": 985,
      "Be": 986,
      "min": 987,
      "because": 988,
      "Ale": 989,
      "place": 990,
      "Peter": 991,
      ";)": 992,
      "Mary": 993,
      "guy": 994,
      "ud": 995,
      "Jen": 996,
      "Pat": 997,
      "Ro": 998,
      "able": 999,
      "file_photo": 1000,
      "ak": 1001,
      "ree": 1002,
      "ich": 1003,
      "year": 1004,
      "jo": 1005,
      "Ke": 1006,
      "Mike": 1007,
      "try": 1008,
      "Rob": 1009,
      "lia": 1010,
      "thanks": 1011,
      "Don": 1012,
      "rest": 1013,
      "Alex": 1014,
      "iz": 1015,
      "over": 1016,
      "Do": 1017,
      "Mon": 1018,
      "Ad": 1019,
      "Anna": 1020,
      "ting": 1021,
      "ies": 1022,
      "ving": 1023,
      "Paul": 1024,
      "cl": 1025,
      "tion": 1026,
      "ist": 1027,
      "wn": 1028,
      "were": 1029,
      "gu": 1030,
      "mber": 1031,
      "ople": 1032,
      "feel": 1033,
      "Le": 1034,
      "ans": 1035,
      "mon": 1036,
      "ake": 1037,
      "fin": 1038,
      "wants": 1039,
      "book": 1040,
      "lat": 1041,
      "nice": 1042,
      "coming": 1043,
      "ways": 1044,
      "doesn": 1045,
      "car": 1046,
      "people": 1047,
      "maybe": 1048,
      "Hey": 1049,
      "lf": 1050,
      "anna": 1051,
      "Mat": 1052,
      "son": 1053,
      "ary": 1054,
      "bit": 1055,
      "tha": 1056,
      "sorry": 1057,
      "Go": 1058,
      "Br": 1059,
      "ren": 1060,
      "only": 1061,
      "blem": 1062,
      "Me": 1063,
      "find": 1064,
      "Well": 1065,
      "Thanks": 1066,
      "problem": 1067,
      "Will": 1068,
      "gan": 1069,
      "ity": 1070,
      "ach": 1071,
      "Mark": 1072,
      "better": 1073,
      "night": 1074,
      "sho": 1075,
      "und": 1076,
      "mis": 1077,
      "sto": 1078,
      "arry": 1079,
      "Ste": 1080,
      "Lo": 1081,
      "cou": 1082,
      "De": 1083,
      "already": 1084,
      "fore": 1085,
      "send": 1086,
      "Je": 1087,
      "app": 1088,
      "mas": 1089,
      "again": 1090,
      "ser": 1091,
      "give": 1092,
      "tw": 1093,
      "party": 1094,
      "mm": 1095,
      "tonight": 1096,
      "late": 1097,
      "Ann": 1098,
      "start": 1099,
      "tra": 1100,
      "fir": 1101,
      "Ben": 1102,
      "ner": 1103,
      "vis": 1104,
      "lle": 1105,
      "ric": 1106,
      "hi": 1107,
      "ason": 1108,
      "bus": 1109,
      "ci": 1110,
      "bab": 1111,
      "play": 1112,
      "watch": 1113,
      "Just": 1114,
      "reg": 1115,
      "anything": 1116,
      "ster": 1117,
      "10": 1118,
      "irl": 1119,
      "Oli": 1120,
      "always": 1121,
      "long": 1122,
      "tle": 1123,
      "idea": 1124,
      "mean": 1125,
      "chan": 1126,
      "check": 1127,
      "oh": 1128,
      "gif": 1129,
      "Mic": 1130,
      "Can": 1131,
      "dis": 1132,
      "Tim": 1133,
      "Jane": 1134,
      "dr": 1135,
      "Sure": 1136,
      "their": 1137,
      "also": 1138,
      "Ge": 1139,
      "ames": 1140,
      "Re": 1141,
      "guys": 1142,
      "ub": 1143,
      "Is": 1144,
      "Ma": 1145,
      "Char": 1146,
      "happen": 1147,
      "Jim": 1148,
      "int": 1149,
      "stay": 1150,
      "ann": 1151,
      "fun": 1152,
      "before": 1153,
      "cour": 1154,
      "fine": 1155,
      "!!!": 1156,
      "io": 1157,
      "ious": 1158,
      "via": 1159,
      "ress": 1160,
      "days": 1161,
      "hour": 1162,
      "ley": 1163,
      "pm": 1164,
      "bring": 1165,
      "Ha": 1166,
      "girl": 1167,
      "around": 1168,
      "soon": 1169,
      "ert": 1170,
      "tor": 1171,
      "first": 1172,
      "thought": 1173,
      "isa": 1174,
      "St": 1175,
      "Are": 1176,
      "yet": 1177,
      "30": 1178,
      "oney": 1179,
      "course": 1180,
      "ord": 1181,
      ":(": 1182,
      "pa": 1183,
      "Lau": 1184,
      "bro": 1185,
      "big": 1186,
      "lla": 1187,
      "ounds": 1188,
      "bad": 1189,
      "wr": 1190,
      "meeting": 1191,
      "member": 1192,
      "ail": 1193,
      "guess": 1194,
      "pare": 1195,
      "spe": 1196,
      "sent": 1197,
      "weekend": 1198,
      "There": 1199,
      "self": 1200,
      "Co": 1201,
      "Sh": 1202,
      "pick": 1203,
      "lol": 1204,
      "later": 1205,
      "Jess": 1206,
      "doing": 1207,
      "Adam": 1208,
      "its": 1209,
      "lit": 1210,
      "vin": 1211,
      "erry": 1212,
      "job": 1213,
      "ise": 1214,
      "old": 1215,
      "Not": 1216,
      "tri": 1217,
      "hope": 1218,
      "yl": 1219,
      "vie": 1220,
      "va": 1221,
      "Geor": 1222,
      "minut": 1223,
      "Sar": 1224,
      "most": 1225,
      "Have": 1226,
      "inda": 1227,
      "ap": 1228,
      "ather": 1229,
      "ark": 1230,
      "ody": 1231,
      "Danie": 1232,
      "di": 1233,
      "pic": 1234,
      "down": 1235,
      "Sarah": 1236,
      "ose": 1237,
      "Good": 1238,
      "Frank": 1239,
      "ually": 1240,
      "kes": 1241,
      "please": 1242,
      "Josh": 1243,
      "Why": 1244,
      "best": 1245,
      "James": 1246,
      "Se": 1247,
      "plan": 1248,
      "month": 1249,
      "two": 1250,
      "never": 1251,
      "Vic": 1252,
      "Andre": 1253,
      "Dav": 1254,
      "Ne": 1255,
      "les": 1256,
      "though": 1257,
      "rent": 1258,
      "sed": 1259,
      "ade": 1260,
      "seen": 1261,
      "ft": 1262,
      "OK": 1263,
      "comp": 1264,
      "remember": 1265,
      "gon": 1266,
      "care": 1267,
      "Jake": 1268,
      "told": 1269,
      "Emma": 1270,
      "Greg": 1271,
      "age": 1272,
      "kid": 1273,
      "anda": 1274,
      "que": 1275,
      "Matt": 1276,
      "aw": 1277,
      "dec": 1278,
      "ear": 1279,
      "scho": 1280,
      "David": 1281,
      "cho": 1282,
      "In": 1283,
      "iam": 1284,
      "might": 1285,
      "cool": 1286,
      "Mel": 1287,
      "pr": 1288,
      "Ar": 1289,
      "Christ": 1290,
      "looking": 1291,
      "class": 1292,
      "join": 1293,
      "Kim": 1294,
      "Maybe": 1295,
      "gonna": 1296,
      "iday": 1297,
      "Thank": 1298,
      "school": 1299,
      "din": 1300,
      "Am": 1301,
      "show": 1302,
      "inv": 1303,
      "happy": 1304,
      "everything": 1305,
      "king": 1306,
      "visit": 1307,
      "ms": 1308,
      "Gr": 1309,
      "ps": 1310,
      "went": 1311,
      "ts": 1312,
      "which": 1313,
      "same": 1314,
      "Bar": 1315,
      "atur": 1316,
      "Monica": 1317,
      "bir": 1318,
      "Joe": 1319,
      "file_gif": 1320,
      "dif": 1321,
      "gl": 1322,
      "room": 1323,
      "sterday": 1324,
      "Did": 1325,
      "gether": 1326,
      "za": 1327,
      "together": 1328,
      "ang": 1329,
      "minutes": 1330,
      "mind": 1331,
      "hael": 1332,
      "said": 1333,
      "du": 1334,
      "je": 1335,
      "bably": 1336,
      "George": 1337,
      "Hel": 1338,
      "dy": 1339,
      ":-": 1340,
      "Nick": 1341,
      "Tr": 1342,
      "hey": 1343,
      "Martha": 1344,
      "ouse": 1345,
      "Harry": 1346,
      "terest": 1347,
      "little": 1348,
      "ever": 1349,
      "Alice": 1350,
      "Sus": 1351,
      "fect": 1352,
      "morning": 1353,
      "xx": 1354,
      "Daniel": 1355,
      "Carol": 1356,
      "Emily": 1357,
      "use": 1358,
      "20": 1359,
      "Jac": 1360,
      "Any": 1361,
      "Jenny": 1362,
      "few": 1363,
      "clo": 1364,
      "Laura": 1365,
      "arri": 1366,
      "Ho": 1367,
      "free": 1368,
      "file_other": 1369,
      "Andy": 1370,
      "sha": 1371,
      "aren": 1372,
      "thy": 1373,
      "things": 1374,
      "eat": 1375,
      "yesterday": 1376,
      "interest": 1377,
      "needs": 1378,
      "Fred": 1379,
      "uff": 1380,
      "Friday": 1381,
      "oph": 1382,
      "ony": 1383,
      "getting": 1384,
      "ild": 1385,
      "stand": 1386,
      "wanted": 1387,
      "If": 1388,
      "ca": 1389,
      "supp": 1390,
      "port": 1391,
      "....": 1392,
      "count": 1393,
      "money": 1394,
      "az": 1395,
      "sit": 1396,
      "birth": 1397,
      "waiting": 1398,
      "tur": 1399,
      "Lucy": 1400,
      "under": 1401,
      "Max": 1402,
      "ten": 1403,
      "drink": 1404,
      "mat": 1405,
      "?!": 1406,
      "Hen": 1407,
      "ets": 1408,
      "Soph": 1409,
      "air": 1410,
      "keep": 1411,
      "many": 1412,
      "aturday": 1413,
      "Linda": 1414,
      "rian": 1415,
      "My": 1416,
      "Mia": 1417,
      "Nat": 1418,
      "less": 1419,
      "left": 1420,
      "bor": 1421,
      "fr": 1422,
      "done": 1423,
      "ire": 1424,
      "Lisa": 1425,
      "sur": 1426,
      "See": 1427,
      "heard": 1428,
      "dress": 1429,
      "tty": 1430,
      "dinner": 1431,
      "llo": 1432,
      "working": 1433,
      "Mo": 1434,
      "cas": 1435,
      "May": 1436,
      "ful": 1437,
      "thinking": 1438,
      "bl": 1439,
      "Bob": 1440,
      "house": 1441,
      "Maria": 1442,
      "Olivia": 1443,
      "birthday": 1444,
      "quite": 1445,
      "ance": 1446,
      "med": 1447,
      "Jeff": 1448,
      "men": 1449,
      "ward": 1450,
      "Bill": 1451,
      "ste": 1452,
      "Luke": 1453,
      "Helen": 1454,
      "leave": 1455,
      "cat": 1456,
      "nes": 1457,
      "inter": 1458,
      "actually": 1459,
      "ger": 1460,
      "stuff": 1461,
      "actly": 1462,
      "tin": 1463,
      "Michael": 1464,
      "happened": 1465,
      "Julia": 1466,
      "zy": 1467,
      "saw": 1468,
      "pay": 1469,
      "dri": 1470,
      "sounds": 1471,
      "Ag": 1472,
      "side": 1473,
      "tick": 1474,
      "hear": 1475,
      "probably": 1476,
      "haven": 1477,
      "acy": 1478,
      "line": 1479,
      "ancy": 1480,
      "ora": 1481,
      "leep": 1482,
      "When": 1483,
      "else": 1484,
      "Henry": 1485,
      "stud": 1486,
      "nothing": 1487,
      "exp": 1488,
      "body": 1489,
      "Saturday": 1490,
      "Dian": 1491,
      "ier": 1492,
      "Steve": 1493,
      "cle": 1494,
      "Jacob": 1495,
      "found": 1496,
      "ved": 1497,
      "light": 1498,
      "friends": 1499,
      "Let": 1500,
      "Where": 1501,
      "food": 1502,
      "fam": 1503,
      "phone": 1504,
      "bre": 1505,
      "key": 1506,
      "Kelly": 1507,
      "Sand": 1508,
      "cent": 1509,
      "Ru": 1510,
      "Ell": 1511,
      "belie": 1512,
      "Sue": 1513,
      "ens": 1514,
      "gg": 1515,
      "miss": 1516,
      "nie": 1517,
      "Amy": 1518,
      "cus": 1519,
      "ria": 1520,
      "Susan": 1521,
      "busy": 1522,
      "annah": 1523,
      "ya": 1524,
      "quest": 1525,
      "Robert": 1526,
      "fuck": 1527,
      "ip": 1528,
      "rick": 1529,
      "Cl": 1530,
      "may": 1531,
      "unch": 1532,
      "Andrew": 1533,
      "kind": 1534,
      "office": 1535,
      "Christmas": 1536,
      "worry": 1537,
      ":/": 1538,
      "Rac": 1539,
      "having": 1540,
      "parent": 1541,
      "ding": 1542,
      "sm": 1543,
      "someone": 1544,
      "pretty": 1545,
      "ith": 1546,
      "such": 1547,
      "thank": 1548,
      "LO": 1549,
      "anc": 1550,
      "forgot": 1551,
      "Ang": 1552,
      "Cla": 1553,
      "bought": 1554,
      "aa": 1555,
      "evening": 1556,
      "Eve": 1557,
      "live": 1558,
      "made": 1559,
      "wanna": 1560,
      "hahaha": 1561,
      "another": 1562,
      "looks": 1563,
      "Hannah": 1564,
      "Karen": 1565,
      "set": 1566,
      "times": 1567,
      "vide": 1568,
      "parents": 1569,
      "El": 1570,
      "okay": 1571,
      "Barb": 1572,
      "Great": 1573,
      "Isa": 1574,
      "into": 1575,
      "ince": 1576,
      "Po": 1577,
      "believe": 1578,
      "15": 1579,
      "joy": 1580,
      "str": 1581,
      "Ed": 1582,
      "put": 1583,
      "pping": 1584,
      "away": 1585,
      "ign": 1586,
      "Kevin": 1587,
      "swe": 1588,
      "umber": 1589,
      "list": 1590,
      "mend": 1591,
      "offe": 1592,
      "diffe": 1593,
      "Ron": 1594,
      "ture": 1595,
      "life": 1596,
      "ject": 1597,
      "years": 1598,
      "ago": 1599,
      "hard": 1600,
      "00": 1601,
      "ible": 1602,
      "recom": 1603,
      "Jason": 1604,
      "recommend": 1605,
      "Ash": 1606,
      "Sim": 1607,
      "Martin": 1608,
      "!!!!": 1609,
      "Mom": 1610,
      "Tina": 1611,
      "ute": 1612,
      "rie": 1613,
      "dont": 1614,
      "Sara": 1615,
      "used": 1616,
      "sleep": 1617,
      "turn": 1618,
      "luck": 1619,
      "Jessica": 1620,
      "Na": 1621,
      "This": 1622,
      "fu": 1623,
      "cook": 1624,
      "Anne": 1625,
      "change": 1626,
      "gest": 1627,
      "Rachel": 1628,
      "shit": 1629,
      "video": 1630,
      "ik": 1631,
      "lor": 1632,
      "Amanda": 1633,
      "All": 1634,
      "sis": 1635,
      "Jose": 1636,
      "while": 1637,
      "both": 1638,
      "ations": 1639,
      "head": 1640,
      "Dave": 1641,
      "Ian": 1642,
      "Tho": 1643,
      "perfect": 1644,
      "date": 1645,
      "ited": 1646,
      "vers": 1647,
      "ila": 1648,
      "name": 1649,
      "Bet": 1650,
      "sk": 1651,
      "Eli": 1652,
      "train": 1653,
      "der": 1654,
      "game": 1655,
      "LOL": 1656,
      "Bre": 1657,
      "Gab": 1658,
      "Liz": 1659,
      "eas": 1660,
      "tt": 1661,
      "ated": 1662,
      "text": 1663,
      "kids": 1664,
      "those": 1665,
      "enough": 1666,
      "pt": 1667,
      "Nancy": 1668,
      "number": 1669,
      "ating": 1670,
      "Ver": 1671,
      "Sorry": 1672,
      "ney": 1673,
      "Patrick": 1674,
      "rey": 1675,
      "Rick": 1676,
      "least": 1677,
      "family": 1678,
      "movie": 1679,
      "scar": 1680,
      "fer": 1681,
      "must": 1682,
      "ence": 1683,
      "Okay": 1684,
      "rence": 1685,
      "serious": 1686,
      "Eva": 1687,
      "Tony": 1688,
      "mail": 1689,
      "trip": 1690,
      "Sophie": 1691,
      "Jay": 1692,
      "XD": 1693,
      "each": 1694,
      "ither": 1695,
      "post": 1696,
      "ug": 1697,
      "worri": 1698,
      "Hello": 1699,
      "Rose": 1700,
      "these": 1701,
      "break": 1702,
      "pass": 1703,
      "hours": 1704,
      "des": 1705,
      "illy": 1706,
      "ot": 1707,
      "Mag": 1708,
      "sug": 1709,
      "picture": 1710,
      "dad": 1711,
      ":*": 1712,
      "Mr": 1713,
      "ome": 1714,
      "far": 1715,
      "understand": 1716,
      "die": 1717,
      "tickets": 1718,
      "Kat": 1719,
      "exam": 1720,
      "ions": 1721,
      "xD": 1722,
      "sick": 1723,
      "toria": 1724,
      "present": 1725,
      "ction": 1726,
      "amaz": 1727,
      "boy": 1728,
      "everyone": 1729,
      "order": 1730,
      "different": 1731,
      "gy": 1732,
      "coffe": 1733,
      "organ": 1734,
      "mum": 1735,
      "Con": 1736,
      "ena": 1737,
      "hed": 1738,
      "Paula": 1739,
      "land": 1740,
      "Gina": 1741,
      "ba": 1742,
      "exactly": 1743,
      "Mad": 1744,
      "Zo": 1745,
      "lunch": 1746,
      "doc": 1747,
      "cra": 1748,
      "sing": 1749,
      "oup": 1750,
      "anyway": 1751,
      "watching": 1752,
      "Ka": 1753,
      "low": 1754,
      "mine": 1755,
      "Thomas": 1756,
      "Da": 1757,
      "Lou": 1758,
      "cont": 1759,
      "til": 1760,
      "true": 1761,
      "Nata": 1762,
      "Diana": 1763,
      "Dor": 1764,
      "ona": 1765,
      "met": 1766,
      "enjoy": 1767,
      "ricia": 1768,
      "top": 1769,
      "being": 1770,
      "weeks": 1771,
      "till": 1772,
      "stop": 1773,
      "Victoria": 1774,
      "cre": 1775,
      "Lucas": 1776,
      "ins": 1777,
      "aron": 1778,
      "ald": 1779,
      "res": 1780,
      "bed": 1781,
      "coffee": 1782,
      "Brian": 1783,
      "Ph": 1784,
      "Zoe": 1785,
      "person": 1786,
      "Sally": 1787,
      "ory": 1788,
      "mom": 1789,
      "Haha": 1790,
      "ones": 1791,
      "Oscar": 1792,
      "Te": 1793,
      "fi": 1794,
      "pris": 1795,
      "Joan": 1796,
      "amazing": 1797,
      "cer": 1798,
      "test": 1799,
      "Su": 1800,
      "Patricia": 1801,
      "Charlie": 1802,
      "Cam": 1803,
      "Eric": 1804,
      "iona": 1805,
      "suggest": 1806,
      "Har": 1807,
      "hair": 1808,
      "rough": 1809,
      "andy": 1810,
      "Sandra": 1811,
      "whole": 1812,
      "plans": 1813,
      "poss": 1814,
      "Ca": 1815,
      "Rich": 1816,
      "Terry": 1817,
      "shopping": 1818,
      "mes": 1819,
      "nor": 1820,
      "Leo": 1821,
      ":-)": 1822,
      "walk": 1823,
      "esome": 1824,
      "talking": 1825,
      "Ky": 1826,
      "once": 1827,
      "Dar": 1828,
      "aut": 1829,
      "Ab": 1830,
      "usu": 1831,
      "run": 1832,
      "isn": 1833,
      "agree": 1834,
      "form": 1835,
      "Noah": 1836,
      "Angel": 1837,
      "Isabe": 1838,
      "Liam": 1839,
      "took": 1840,
      "wear": 1841,
      "project": 1842,
      "Fiona": 1843,
      "seems": 1844,
      "loe": 1845,
      "own": 1846,
      "called": 1847,
      "cial": 1848,
      "vent": 1849,
      "izza": 1850,
      "Ken": 1851,
      "sth": 1852,
      "town": 1853,
      "itch": 1854,
      "icul": 1855,
      "En": 1856,
      "ene": 1857,
      "hand": 1858,
      "since": 1859,
      "wed": 1860,
      "open": 1861,
      "Nic": 1862,
      "othy": 1863,
      "Betty": 1864,
      "spend": 1865,
      "Chloe": 1866,
      "ison": 1867,
      "pain": 1868,
      "asked": 1869,
      "dog": 1870,
      "Brad": 1871,
      "couple": 1872,
      "ensive": 1873,
      "ana": 1874,
      "cond": 1875,
      "Ashley": 1876,
      "ita": 1877,
      "iting": 1878,
      "Grace": 1879,
      "Bo": 1880,
      "point": 1881,
      "aving": 1882,
      "Simon": 1883,
      "acc": 1884,
      "surpris": 1885,
      "Ly": 1886,
      "through": 1887,
      "par": 1888,
      "William": 1889,
      "Er": 1890,
      "likes": 1891,
      "em": 1892,
      "ette": 1893,
      "hh": 1894,
      "real": 1895,
      "hate": 1896,
      "prepare": 1897,
      "Lily": 1898,
      "pect": 1899,
      "until": 1900,
      "Pete": 1901,
      "???": 1902,
      "aur": 1903,
      "news": 1904,
      "trying": 1905,
      "finite": 1906,
      "holi": 1907,
      "Of": 1908,
      "wasn": 1909,
      "months": 1910,
      "without": 1911,
      "Jenn": 1912,
      "Kar": 1913,
      "Ted": 1914,
      "fort": 1915,
      "feeling": 1916,
      "wish": 1917,
      "almost": 1918,
      "taking": 1919,
      "wonder": 1920,
      "finitely": 1921,
      "bar": 1922,
      "Nina": 1923,
      "12": 1924,
      "Bro": 1925,
      "noon": 1926,
      "exc": 1927,
      "Beth": 1928,
      "Dad": 1929,
      "sy": 1930,
      "att": 1931,
      "Megan": 1932,
      "Wend": 1933,
      "iv": 1934,
      "ash": 1935,
      "Ethan": 1936,
      "fav": 1937,
      "Joseph": 1938,
      "On": 1939,
      "osed": 1940,
      "lyn": 1941,
      "Sund": 1942,
      "came": 1943,
      "case": 1944,
      "Agnes": 1945,
      "Claire": 1946,
      "flight": 1947,
      "pri": 1948,
      "anyone": 1949,
      "supposed": 1950,
      "pol": 1951,
      "Charles": 1952,
      "Ame": 1953,
      "fast": 1954,
      "beaut": 1955,
      "Juli": 1956,
      "Sunday": 1957,
      "den": 1958,
      "pizza": 1959,
      "expensive": 1960,
      "Barbara": 1961,
      "Ry": 1962,
      "wrong": 1963,
      "mus": 1964,
      "ugh": 1965,
      "win": 1966,
      "wo": 1967,
      "group": 1968,
      "baby": 1969,
      "gie": 1970,
      "sid": 1971,
      "Alan": 1972,
      "write": 1973,
      "Cool": 1974,
      "wen": 1975,
      "reen": 1976,
      "girls": 1977,
      "finish": 1978,
      "cr": 1979,
      "city": 1980,
      "thinks": 1981,
      "says": 1982,
      "Wendy": 1983,
      "arm": 1984,
      "funny": 1985,
      "mate": 1986,
      "Some": 1987,
      "Dam": 1988,
      "wine": 1989,
      "als": 1990,
      "rible": 1991,
      "shop": 1992,
      "bu": 1993,
      "ues": 1994,
      "helle": 1995,
      "interesting": 1996,
      "uel": 1997,
      "started": 1998,
      "Caroline": 1999,
      "HA": 2000,
      "van": 2001,
      "half": 2002,
      "ird": 2003,
      "chang": 2004,
      "ga": 2005,
      "tired": 2006,
      "Sean": 2007,
      "igh": 2008,
      "ling": 2009,
      "leaving": 2010,
      "ifer": 2011,
      "Maya": 2012,
      "child": 2013,
      "Stan": 2014,
      "sister": 2015,
      "anie": 2016,
      "ons": 2017,
      "hes": 2018,
      "iley": 2019,
      "super": 2020,
      "sol": 2021,
      "uring": 2022,
      "Julie": 2023,
      "ical": 2024,
      "raid": 2025,
      "urs": 2026,
      "Jerry": 2027,
      "view": 2028,
      "Ryan": 2029,
      "mother": 2030,
      "As": 2031,
      "Ger": 2032,
      "lin": 2033,
      "beer": 2034,
      "planning": 2035,
      "partment": 2036,
      "Victor": 2037,
      "Jam": 2038,
      "blo": 2039,
      "ken": 2040,
      "lip": 2041,
      "colle": 2042,
      "myself": 2043,
      "Monday": 2044,
      "OM": 2045,
      "antha": 2046,
      "expect": 2047,
      "Donna": 2048,
      "beth": 2049,
      "Ex": 2050,
      "Samantha": 2051,
      "New": 2052,
      "lost": 2053,
      "Franc": 2054,
      "Who": 2055,
      "reci": 2056,
      "move": 2057,
      "indy": 2058,
      "possible": 2059,
      "Jennifer": 2060,
      "To": 2061,
      "hor": 2062,
      "study": 2063,
      "Ava": 2064,
      "Jill": 2065,
      "Natalie": 2066,
      "ane": 2067,
      "Oliver": 2068,
      "Like": 2069,
      "pack": 2070,
      "ange": 2071,
      "anymore": 2072,
      "Tracy": 2073,
      "ked": 2074,
      "cannot": 2075,
      "Michelle": 2076,
      "Ruth": 2077,
      "playing": 2078,
      "lease": 2079,
      "wouldn": 2080,
      "Vick": 2081,
      "afraid": 2082,
      "company": 2083,
      "early": 2084,
      "lix": 2085,
      "For": 2086,
      "Lilly": 2087,
      "isy": 2088,
      "iful": 2089,
      "ched": 2090,
      "decid": 2091,
      "Molly": 2092,
      "during": 2093,
      "works": 2094,
      "interested": 2095,
      "vice": 2096,
      "gen": 2097,
      "issa": 2098,
      "drive": 2099,
      "Amelia": 2100,
      "cold": 2101,
      "lain": 2102,
      "wedding": 2103,
      "Or": 2104,
      "bs": 2105,
      "awesome": 2106,
      "clean": 2107,
      "aurant": 2108,
      "couldn": 2109,
      "Richard": 2110,
      "pub": 2111,
      "Marie": 2112,
      "high": 2113,
      "thew": 2114,
      "cost": 2115,
      "tel": 2116,
      "tried": 2117,
      "ib": 2118,
      "online": 2119,
      "net": 2120,
      "Nathan": 2121,
      "Maggie": 2122,
      "vel": 2123,
      "cky": 2124,
      "cha": 2125,
      "asking": 2126,
      "easy": 2127,
      "Phil": 2128,
      "Abig": 2129,
      "cal": 2130,
      "afternoon": 2131,
      "near": 2132,
      "aret": 2133,
      "char": 2134,
      "press": 2135,
      "oooo": 2136,
      "Sounds": 2137,
      "ump": 2138,
      "det": 2139,
      "vo": 2140,
      "tot": 2141,
      "Marg": 2142,
      "restaurant": 2143,
      "doctor": 2144,
      "Fin": 2145,
      "cert": 2146,
      "uro": 2147,
      "definitely": 2148,
      "appo": 2149,
      "Abigail": 2150,
      "email": 2151,
      "Logan": 2152,
      "sweet": 2153,
      "lad": 2154,
      "enny": 2155,
      "song": 2156,
      "ese": 2157,
      "rain": 2158,
      "Dorothy": 2159,
      "Look": 2160,
      "deal": 2161,
      "broke": 2162,
      "messa": 2163,
      "beautiful": 2164,
      "da": 2165,
      "Ella": 2166,
      "cor": 2167,
      "wow": 2168,
      "ital": 2169,
      "ics": 2170,
      "Meg": 2171,
      "Ber": 2172,
      "Wow": 2173,
      "uri": 2174,
      "yourself": 2175,
      "classes": 2176,
      "Mum": 2177,
      "gi": 2178,
      "ished": 2179,
      "sub": 2180,
      "concert": 2181,
      "small": 2182,
      "Kyle": 2183,
      "11": 2184,
      "Please": 2185,
      "lear": 2186,
      "liked": 2187,
      "Hope": 2188,
      "card": 2189,
      "Jackie": 2190,
      "Kris": 2191,
      "mer": 2192,
      "ont": 2193,
      "contact": 2194,
      "-)": 2195,
      "second": 2196,
      "dro": 2197,
      "making": 2198,
      "boss": 2199,
      "Really": 2200,
      "Daisy": 2201,
      "ments": 2202,
      "brother": 2203,
      "listen": 2204,
      "vor": 2205,
      "import": 2206,
      "Margaret": 2207,
      "wel": 2208,
      "alone": 2209,
      "promis": 2210,
      "ursday": 2211,
      "mar": 2212,
      "ident": 2213,
      "ves": 2214,
      "Angela": 2215,
      "OMG": 2216,
      "ages": 2217,
      "avail": 2218,
      "crazy": 2219,
      "Fe": 2220,
      "Larry": 2221,
      "Pe": 2222,
      "lling": 2223,
      "ball": 2224,
      "Now": 2225,
      "June": 2226,
      "Could": 2227,
      "ars": 2228,
      "forget": 2229,
      "question": 2230,
      "Tob": 2231,
      "appoint": 2232,
      "important": 2233,
      "At": 2234,
      "Wed": 2235,
      "Caron": 2236,
      "ole": 2237,
      "uni": 2238,
      "Jimmy": 2239,
      "stead": 2240,
      "Mir": 2241,
      "lu": 2242,
      "ings": 2243,
      "inema": 2244,
      "ize": 2245,
      "Suz": 2246,
      "Den": 2247,
      "Sha": 2248,
      "sal": 2249,
      "ition": 2250,
      "weather": 2251,
      "finally": 2252,
      "Steph": 2253,
      "speak": 2254,
      "iness": 2255,
      "flat": 2256,
      "sim": 2257,
      "Jon": 2258,
      "team": 2259,
      "lotte": 2260,
      "bur": 2261,
      "cel": 2262,
      "either": 2263,
      "rece": 2264,
      "lect": 2265,
      "ween": 2266,
      "ared": 2267,
      "Annie": 2268,
      "Charlotte": 2269,
      "Ellie": 2270,
      "mark": 2271,
      "ately": 2272,
      "Un": 2273,
      "onest": 2274,
      "sen": 2275,
      "pped": 2276,
      "Yep": 2277,
      "add": 2278,
      "upid": 2279,
      "hasn": 2280,
      "Per": 2281,
      "recent": 2282,
      "Jere": 2283,
      "borrow": 2284,
      "Jamie": 2285,
      "available": 2286,
      "wer": 2287,
      "ze": 2288,
      "wis": 2289,
      "outside": 2290,
      "summ": 2291,
      "glad": 2292,
      "decided": 2293,
      "Dom": 2294,
      "cute": 2295,
      "park": 2296,
      "unk": 2297,
      "jam": 2298,
      "front": 2299,
      "gave": 2300,
      "sty": 2301,
      "discus": 2302,
      "Brend": 2303,
      "asha": 2304,
      "worries": 2305,
      "special": 2306,
      "nesday": 2307,
      "music": 2308,
      "hur": 2309,
      "somewhere": 2310,
      "moment": 2311,
      "Mor": 2312,
      "spo": 2313,
      "ates": 2314,
      "peri": 2315,
      "problems": 2316,
      "Gary": 2317,
      "cinema": 2318,
      "lic": 2319,
      "dear": 2320,
      "talked": 2321,
      "Val": 2322,
      "season": 2323,
      "Joanna": 2324,
      "Patty": 2325,
      "band": 2326,
      "Im": 2327,
      "station": 2328,
      "thats": 2329,
      "log": 2330,
      "tie": 2331,
      "word": 2332,
      "close": 2333,
      "Nor": 2334,
      "stupid": 2335,
      "ayla": 2336,
      "world": 2337,
      "link": 2338,
      "mid": 2339,
      "books": 2340,
      "ouch": 2341,
      "lovely": 2342,
      "Bru": 2343,
      "ced": 2344,
      "Jas": 2345,
      "rid": 2346,
      "hotel": 2347,
      "lake": 2348,
      "Bye": 2349,
      "Tues": 2350,
      "hu": 2351,
      "reet": 2352,
      "prefer": 2353,
      "offer": 2354,
      "trans": 2355,
      "cur": 2356,
      "dam": 2357,
      "vious": 2358,
      "Thursday": 2359,
      "Vicky": 2360,
      "ats": 2361,
      "gets": 2362,
      "Every": 2363,
      "bast": 2364,
      "mit": 2365,
      "water": 2366,
      "Engl": 2367,
      "Wednesday": 2368,
      "Aaron": 2369,
      "Pro": 2370,
      "instead": 2371,
      "knows": 2372,
      "consid": 2373,
      "ends": 2374,
      "Then": 2375,
      "grand": 2376,
      "Jean": 2377,
      "Melissa": 2378,
      "event": 2379,
      "kill": 2380,
      "acher": 2381,
      "Eliza": 2382,
      "Hmm": 2383,
      "ross": 2384,
      "bert": 2385,
      "Which": 2386,
      "Ana": 2387,
      "sie": 2388,
      "cept": 2389,
      "Should": 2390,
      "fre": 2391,
      "makes": 2392,
      "Ruby": 2393,
      "lier": 2394,
      "door": 2395,
      "gift": 2396,
      "yler": 2397,
      "summer": 2398,
      "Tay": 2399,
      "account": 2400,
      "load": 2401,
      "rather": 2402,
      "tain": 2403,
      "photos": 2404,
      "detail": 2405,
      "recently": 2406,
      "Jeremy": 2407,
      "50": 2408,
      "Aud": 2409,
      "Lon": 2410,
      "Pol": 2411,
      "Syl": 2412,
      "Would": 2413,
      "apartment": 2414,
      "seeing": 2415,
      "choose": 2416,
      "dude": 2417,
      "Sp": 2418,
      "Tre": 2419,
      "ficul": 2420,
      "games": 2421,
      "reason": 2422,
      "Tommy": 2423,
      "Becky": 2424,
      "finished": 2425,
      "Owen": 2426,
      "pop": 2427,
      "ww": 2428,
      "bec": 2429,
      "dead": 2430,
      "Matthew": 2431,
      "PM": 2432,
      "xd": 2433,
      "store": 2434,
      "ylan": 2435,
      "Taylor": 2436,
      "Ce": 2437,
      "Sco": 2438,
      "buying": 2439,
      "Veron": 2440,
      "totally": 2441,
      "ka": 2442,
      "ext": 2443,
      "usual": 2444,
      "mod": 2445,
      "ru": 2446,
      "hell": 2447,
      "Holly": 2448,
      "table": 2449,
      "worried": 2450,
      "Nicole": 2451,
      "del": 2452,
      "fil": 2453,
      "teacher": 2454,
      "oman": 2455,
      "invited": 2456,
      "hun": 2457,
      "honest": 2458,
      "ically": 2459,
      "Carl": 2460,
      "asks": 2461,
      "difficul": 2462,
      "black": 2463,
      "Cindy": 2464,
      "DD": 2465,
      "uu": 2466,
      "riel": 2467,
      "safe": 2468,
      "paper": 2469,
      "details": 2470,
      "Her": 2471,
      "Lee": 2472,
      "comes": 2473,
      "ideas": 2474,
      "fix": 2475,
      "Brenda": 2476,
      "sort": 2477,
      "rek": 2478,
      "hosp": 2479,
      "Danny": 2480,
      "saying": 2481,
      "earlier": 2482,
      "Tuesday": 2483,
      "Amber": 2484,
      "Lind": 2485,
      "Wal": 2486,
      "fan": 2487,
      "lying": 2488,
      "catch": 2489,
      "imag": 2490,
      "sul": 2491,
      "short": 2492,
      "board": 2493,
      "club": 2494,
      "Brit": 2495,
      ";-)": 2496,
      "Dylan": 2497,
      "Man": 2498,
      "War": 2499,
      "cam": 2500,
      "mp": 2501,
      "llow": 2502,
      "alright": 2503,
      "main": 2504,
      "gotta": 2505,
      "longer": 2506,
      "agre": 2507,
      "comple": 2508,
      "gym": 2509,
      "marri": 2510,
      "weird": 2511,
      "bot": 2512,
      "pictures": 2513,
      "Veronica": 2514,
      "cut": 2515,
      "cess": 2516,
      "watched": 2517,
      "business": 2518,
      "neigh": 2519,
      "option": 2520,
      "drunk": 2521,
      "Right": 2522,
      "atherine": 2523,
      "bas": 2524,
      "bye": 2525,
      "ces": 2526,
      "vi": 2527,
      "cially": 2528,
      "English": 2529,
      "Mandy": 2530,
      "gn": 2531,
      "ted": 2532,
      "manag": 2533,
      "Trevor": 2534,
      "Nice": 2535,
      "sad": 2536,
      "stress": 2537,
      "led": 2538,
      "Fran": 2539,
      "favour": 2540,
      "difficult": 2541,
      "gin": 2542,
      "honey": 2543,
      "suggests": 2544,
      "rad": 2545,
      "leg": 2546,
      "roy": 2547,
      "ents": 2548,
      "cheap": 2549,
      "chedu": 2550,
      "pleas": 2551,
      "Bella": 2552,
      "Af": 2553,
      "answer": 2554,
      "boyfriend": 2555,
      "Exactly": 2556,
      "Aust": 2557,
      "goes": 2558,
      "missed": 2559,
      "ien": 2560,
      "prof": 2561,
      "Katie": 2562,
      "excited": 2563,
      "Ral": 2564,
      "cli": 2565,
      "hmm": 2566,
      "past": 2567,
      "box": 2568,
      "hahah": 2569,
      "Steven": 2570,
      "angry": 2571,
      "Sophia": 2572,
      "London": 2573,
      "cele": 2574,
      "Derek": 2575,
      "series": 2576,
      "paid": 2577,
      "welcome": 2578,
      "lled": 2579,
      "sometimes": 2580,
      "between": 2581,
      "fully": 2582,
      "ika": 2583,
      "Toby": 2584,
      "face": 2585,
      "three": 2586,
      "llie": 2587,
      "ush": 2588,
      "price": 2589,
      "holiday": 2590,
      "children": 2591,
      "learn": 2592,
      "Audrey": 2593,
      "God": 2594,
      "ream": 2595,
      "remind": 2596,
      "forward": 2597,
      "staying": 2598,
      "Andrea": 2599,
      "cake": 2600,
      "thx": 2601,
      "ori": 2602,
      "lian": 2603,
      "ship": 2604,
      "discuss": 2605,
      "Che": 2606,
      "Wanna": 2607,
      "essa": 2608,
      "cant": 2609,
      "decide": 2610,
      "consider": 2611,
      "hospital": 2612,
      "Ralph": 2613,
      "19": 2614,
      "Ire": 2615,
      "Alexand": 2616,
      "chance": 2617,
      "girlfriend": 2618,
      "invit": 2619,
      "matter": 2620,
      "Ray": 2621,
      "Ser": 2622,
      "ring": 2623,
      "sign": 2624,
      "thes": 2625,
      "etc": 2626,
      "Nope": 2627,
      "loves": 2628,
      "celebr": 2629,
      "Pam": 2630,
      "yy": 2631,
      "onia": 2632,
      "arch": 2633,
      "ham": 2634,
      "file_video": 2635,
      "feels": 2636,
      "Love": 2637,
      "Justin": 2638,
      "Louise": 2639,
      "complete": 2640,
      "eed": 2641,
      "knew": 2642,
      "Got": 2643,
      "gue": 2644,
      "sound": 2645,
      "cop": 2646,
      "tive": 2647,
      "manage": 2648,
      "aris": 2649,
      "Come": 2650,
      "bag": 2651,
      "oud": 2652,
      "heal": 2653,
      "chick": 2654,
      "sun": 2655,
      "reading": 2656,
      "Anyway": 2657,
      "solute": 2658,
      "yo": 2659,
      "road": 2660,
      "message": 2661,
      "Kimber": 2662,
      "drinks": 2663,
      "seriously": 2664,
      "Blake": 2665,
      "uation": 2666,
      "rew": 2667,
      "quick": 2668,
      "share": 2669,
      "boring": 2670,
      "Bart": 2671,
      "fit": 2672,
      "inform": 2673,
      "tory": 2674,
      "invite": 2675,
      "blue": 2676,
      "Clara": 2677,
      "Sylvia": 2678,
      "Ali": 2679,
      "Sk": 2680,
      "Sm": 2681,
      "father": 2682,
      "len": 2683,
      "ual": 2684,
      "ount": 2685,
      "aces": 2686,
      "cks": 2687,
      "ffic": 2688,
      "Ross": 2689,
      "Leah": 2690,
      "arrive": 2691,
      "Ellen": 2692,
      "accident": 2693,
      "imagine": 2694,
      "Bl": 2695,
      "Lena": 2696,
      "ii": 2697,
      "mad": 2698,
      "mess": 2699,
      "notes": 2700,
      "Adrian": 2701,
      "full": 2702,
      "Scott": 2703,
      "Hugh": 2704,
      "dia": 2705,
      "aly": 2706,
      "Theo": 2707,
      "rist": 2708,
      "Bry": 2709,
      "Your": 2710,
      "fact": 2711,
      "ix": 2712,
      "inst": 2713,
      "ork": 2714,
      "hot": 2715,
      "col": 2716,
      "whatever": 2717,
      "experi": 2718,
      "mention": 2719,
      "Domin": 2720,
      "gra": 2721,
      "touch": 2722,
      "Evan": 2723,
      "Pa": 2724,
      "TV": 2725,
      "dou": 2726,
      "flix": 2727,
      "hop": 2728,
      "lap": 2729,
      "Rebec": 2730,
      "clothes": 2731,
      "Bobby": 2732,
      "running": 2733,
      "married": 2734,
      "Rebecca": 2735,
      "os": 2736,
      "warm": 2737,
      "wife": 2738,
      "idge": 2739,
      "worth": 2740,
      "worse": 2741,
      "iles": 2742,
      "kidding": 2743,
      "babe": 2744,
      "changed": 2745,
      "fish": 2746,
      "vies": 2747,
      "😂😂": 2748,
      "ira": 2749,
      "Miranda": 2750,
      "issu": 2751,
      "arr": 2752,
      "law": 2753,
      "Sebast": 2754,
      "Elisa": 2755,
      "Ah": 2756,
      "Jord": 2757,
      "Lol": 2758,
      "Phi": 2759,
      "Rory": 2760,
      "iet": 2761,
      "ford": 2762,
      "aul": 2763,
      "Nothing": 2764,
      "Stanley": 2765,
      "Mason": 2766,
      "pie": 2767,
      "advice": 2768,
      "bored": 2769,
      "100": 2770,
      "yep": 2771,
      "poor": 2772,
      "posit": 2773,
      "Lola": 2774,
      "Hahaha": 2775,
      "Jessie": 2776,
      "True": 2777,
      "Freddie": 2778,
      "US": 2779,
      "oke": 2780,
      "vy": 2781,
      "arent": 2782,
      "ference": 2783,
      "takes": 2784,
      "Janet": 2785,
      "Samuel": 2786,
      "writing": 2787,
      "xxx": 2788,
      "driving": 2789,
      "fucking": 2790,
      "Gabriel": 2791,
      "ities": 2792,
      "produ": 2793,
      "others": 2794,
      "booked": 2795,
      "surprise": 2796,
      "appointment": 2797,
      "40": 2798,
      "bour": 2799,
      "dra": 2800,
      "youn": 2801,
      "grab": 2802,
      "recommends": 2803,
      "Isabella": 2804,
      "Finn": 2805,
      "Perfect": 2806,
      "Tyler": 2807,
      "stair": 2808,
      "moved": 2809,
      "movies": 2810,
      "Pauline": 2811,
      "Sharon": 2812,
      "country": 2813,
      "Edward": 2814,
      "usually": 2815,
      "Cor": 2816,
      "Ra": 2817,
      "bie": 2818,
      "due": 2819,
      "gone": 2820,
      "ial": 2821,
      "ja": 2822,
      "ular": 2823,
      "ooo": 2824,
      "Donald": 2825,
      "Ola": 2826,
      "rect": 2827,
      "stuck": 2828,
      "using": 2829,
      "rown": 2830,
      "confir": 2831,
      "drop": 2832,
      "Elizabeth": 2833,
      "Sebastian": 2834,
      "Euro": 2835,
      "enter": 2836,
      "ille": 2837,
      "looked": 2838,
      "lots": 2839,
      "choice": 2840,
      "wards": 2841,
      "Tam": 2842,
      "Wa": 2843,
      "flo": 2844,
      "wise": 2845,
      "oper": 2846,
      "Carrie": 2847,
      "sends": 2848,
      "uba": 2849,
      "Tell": 2850,
      "itchen": 2851,
      "solutely": 2852,
      "Kimberly": 2853,
      "Lia": 2854,
      "aking": 2855,
      "Robin": 2856,
      "Dean": 2857,
      "Very": 2858,
      "holidays": 2859,
      "Francis": 2860,
      "receive": 2861,
      "One": 2862,
      "hang": 2863,
      "ness": 2864,
      "thony": 2865,
      "taken": 2866,
      "shoes": 2867,
      "airport": 2868,
      "Ur": 2869,
      "mal": 2870,
      "wall": 2871,
      "unately": 2872,
      "........": 2873,
      "stru": 2874,
      "45": 2875,
      "Guy": 2876,
      "winter": 2877,
      "sex": 2878,
      "Anthony": 2879,
      "udia": 2880,
      "Isla": 2881,
      "Sandy": 2882,
      "Flo": 2883,
      "fair": 2884,
      "god": 2885,
      "hol": 2886,
      "teach": 2887,
      "epis": 2888,
      "Act": 2889,
      "ES": 2890,
      "Net": 2891,
      "Sid": 2892,
      "Take": 2893,
      "cri": 2894,
      "gar": 2895,
      "kinda": 2896,
      "resp": 2897,
      "illa": 2898,
      "Georg": 2899,
      "pics": 2900,
      "stairs": 2901,
      "episod": 2902,
      "IN": 2903,
      "OO": 2904,
      "kitchen": 2905,
      "lan": 2906,
      "snow": 2907,
      "iss": 2908,
      "cover": 2909,
      "white": 2910,
      "omg": 2911,
      "match": 2912,
      "Louis": 2913,
      "bottle": 2914,
      "Hu": 2915,
      "Qu": 2916,
      "Rita": 2917,
      "chat": 2918,
      "ude": 2919,
      "request": 2920,
      "Does": 2921,
      "minute": 2922,
      "horrible": 2923,
      "Philip": 2924,
      "Mer": 2925,
      "Nora": 2926,
      "cord": 2927,
      "uary": 2928,
      "return": 2929,
      "irt": 2930,
      "extra": 2931,
      "Roger": 2932,
      "Mona": 2933,
      "appreci": 2934,
      "Lauren": 2935,
      "Diane": 2936,
      "Aid": 2937,
      "Vio": 2938,
      "terrible": 2939,
      "traffic": 2940,
      "Polly": 2941,
      "ption": 2942,
      "yn": 2943,
      "moving": 2944,
      "Melanie": 2945,
      "attend": 2946,
      "jamin": 2947,
      "Rod": 2948,
      "dar": 2949,
      "los": 2950,
      "Joy": 2951,
      "Heather": 2952,
      "ilk": 2953,
      "acey": 2954,
      "Leon": 2955,
      "Benjamin": 2956,
      "checked": 2957,
      "keys": 2958,
      "After": 2959,
      "Irene": 2960,
      "address": 2961,
      "cked": 2962,
      "Deb": 2963,
      "favourite": 2964,
      "profess": 2965,
      "Glor": 2966,
      "His": 2967,
      "ler": 2968,
      "report": 2969,
      "icia": 2970,
      "wondering": 2971,
      "25": 2972,
      "Ol": 2973,
      "gle": 2974,
      "ju": 2975,
      "schedu": 2976,
      "rela": 2977,
      "along": 2978,
      "seem": 2979,
      "ticket": 2980,
      "OU": 2981,
      "Zack": 2982,
      "fa": 2983,
      "gent": 2984,
      "conference": 2985,
      "story": 2986,
      "anne": 2987,
      "suit": 2988,
      "yours": 2989,
      "Theresa": 2990,
      "Lydia": 2991,
      "arently": 2992,
      "Actually": 2993,
      "Barry": 2994,
      "Jes": 2995,
      "Kit": 2996,
      "Still": 2997,
      "flow": 2998,
      "ata": 2999,
      "sec": 3000,
      "entr": 3001,
      "opin": 3002,
      "conf": 3003,
      "astic": 3004,
      "situation": 3005,
      "questions": 3006,
      "presentation": 3007,
      "huge": 3008,
      "film": 3009,
      "resul": 3010,
      "mins": 3011,
      "market": 3012,
      "Smith": 3013,
      "Gloria": 3014,
      "orge": 3015,
      "ills": 3016,
      "places": 3017,
      "shouldn": 3018,
      "Walter": 3019,
      "laptop": 3020,
      "Pl": 3021,
      "hit": 3022,
      "proper": 3023,
      "avier": 3024,
      "homework": 3025,
      "eeee": 3026,
      "trave": 3027,
      "spect": 3028,
      "bath": 3029,
      "Es": 3030,
      "Fine": 3031,
      "cross": 3032,
      "thur": 3033,
      "stra": 3034,
      "sell": 3035,
      "pair": 3036,
      "**": 3037,
      "Pho": 3038,
      "pat": 3039,
      "treat": 3040,
      "ern": 3041,
      "ery": 3042,
      "sel": 3043,
      "Judy": 3044,
      "fortunately": 3045,
      "accept": 3046,
      "lately": 3047,
      "Arthur": 3048,
      "build": 3049,
      "Jordan": 3050,
      "Les": 3051,
      "Nate": 3052,
      "Pame": 3053,
      "bank": 3054,
      "mma": 3055,
      "tu": 3056,
      "ua": 3057,
      "means": 3058,
      "ries": 3059,
      "comput": 3060,
      "versity": 3061,
      "Erin": 3062,
      "giving": 3063,
      "promise": 3064,
      "Poland": 3065,
      "Pamela": 3066,
      "Jona": 3067,
      "NO": 3068,
      "Rus": 3069,
      "fant": 3070,
      "swi": 3071,
      "ret": 3072,
      "search": 3073,
      "action": 3074,
      "advis": 3075,
      "spent": 3076,
      "sport": 3077,
      "brary": 3078,
      "Brand": 3079,
      "sending": 3080,
      "ilda": 3081,
      "breakfast": 3082,
      "Suzie": 3083,
      "lecture": 3084,
      "Jonathan": 3085,
      "Dora": 3086,
      "Hun": 3087,
      "bud": 3088,
      "ges": 3089,
      "val": 3090,
      "hello": 3091,
      "dow": 3092,
      "Marc": 3093,
      "pract": 3094,
      "interview": 3095,
      "cooking": 3096,
      "Europe": 3097,
      "Here": 3098,
      "Brooke": 3099,
      "With": 3100,
      "milk": 3101,
      "throw": 3102,
      "ters": 3103,
      "aught": 3104,
      "foot": 3105,
      "serv": 3106,
      "gener": 3107,
      "sense": 3108,
      "Viv": 3109,
      "fight": 3110,
      "rel": 3111,
      "rill": 3112,
      "odd": 3113,
      "needed": 3114,
      "convin": 3115,
      "Year": 3116,
      "Carmen": 3117,
      "trust": 3118,
      "rench": 3119,
      "dith": 3120,
      "lucky": 3121,
      "computer": 3122,
      "Aw": 3123,
      "Paris": 3124,
      "dream": 3125,
      "atul": 3126,
      "eline": 3127,
      "follow": 3128,
      "Stacy": 3129,
      "Gabrie": 3130,
      "relax": 3131,
      "La": 3132,
      "Was": 3133,
      "ror": 3134,
      "vac": 3135,
      "ys": 3136,
      "enti": 3137,
      "sea": 3138,
      "webs": 3139,
      "ppy": 3140,
      "unno": 3141,
      "surprised": 3142,
      "studying": 3143,
      "Lindsay": 3144,
      "Netflix": 3145,
      "Olga": 3146,
      "Face": 3147,
      "Ind": 3148,
      "rice": 3149,
      "woman": 3150,
      "tho": 3151,
      "library": 3152,
      "Alison": 3153,
      "explain": 3154,
      "Madison": 3155,
      "cream": 3156,
      "damn": 3157,
      "Li": 3158,
      "nold": 3159,
      "loved": 3160,
      "arrived": 3161,
      "darling": 3162,
      "Sonia": 3163,
      "ref": 3164,
      "often": 3165,
      "neither": 3166,
      "tian": 3167,
      "Alf": 3168,
      "happens": 3169,
      "Cale": 3170,
      "Bruce": 3171,
      "Jasmine": 3172,
      "website": 3173,
      "App": 3174,
      "Hank": 3175,
      "Lenny": 3176,
      "ali": 3177,
      "fall": 3178,
      "round": 3179,
      "ying": 3180,
      "ater": 3181,
      "pecially": 3182,
      "omi": 3183,
      "starts": 3184,
      "neighbour": 3185,
      "\".": 3186,
      "RE": 3187,
      "TH": 3188,
      "Wil": 3189,
      "ond": 3190,
      "ised": 3191,
      "ices": 3192,
      "especially": 3193,
      "gram": 3194,
      "Because": 3195,
      "Lewis": 3196,
      "ath": 3197,
      "ants": 3198,
      "Yea": 3199,
      "travel": 3200,
      "drinking": 3201,
      "normal": 3202,
      "Gu": 3203,
      "sw": 3204,
      "war": 3205,
      "begin": 3206,
      "dep": 3207,
      "deli": 3208,
      "dered": 3209,
      "Albert": 3210,
      "finds": 3211,
      "Cle": 3212,
      "Kas": 3213,
      "anno": 3214,
      "oking": 3215,
      "wash": 3216,
      "ists": 3217,
      "Joshua": 3218,
      "completely": 3219,
      "chicken": 3220,
      "Apri": 3221,
      "Cher": 3222,
      "Col": 3223,
      "Hay": 3224,
      "Mi": 3225,
      "Scar": 3226,
      "inside": 3227,
      "impress": 3228,
      "iot": 3229,
      "support": 3230,
      "polit": 3231,
      "April": 3232,
      "Penny": 3233,
      "cast": 3234,
      "fig": 3235,
      "street": 3236,
      "iled": 3237,
      "indeed": 3238,
      "ilar": 3239,
      "Lea": 3240,
      "appro": 3241,
      "Stephanie": 3242,
      "AS": 3243,
      "Lara": 3244,
      "Mick": 3245,
      "nis": 3246,
      "idi": 3247,
      "iff": 3248,
      "pot": 3249,
      "Beat": 3250,
      "shall": 3251,
      "Connor": 3252,
      "Warsaw": 3253,
      "appreciate": 3254,
      "Fa": 3255,
      "Gre": 3256,
      "King": 3257,
      "aper": 3258,
      "green": 3259,
      "nn": 3260,
      "hehe": 3261,
      "star": 3262,
      "save": 3263,
      "Italy": 3264,
      "afford": 3265,
      "ches": 3266,
      "Carlos": 3267,
      "telling": 3268,
      "Evelyn": 3269,
      "emp": 3270,
      "Stell": 3271,
      "ebe": 3272,
      "flu": 3273,
      "heart": 3274,
      "tea": 3275,
      "starting": 3276,
      "died": 3277,
      "Facebook": 3278,
      "Stella": 3279,
      "Ita": 3280,
      "cu": 3281,
      "pur": 3282,
      "rs": 3283,
      "congr": 3284,
      "Caro": 3285,
      "Roy": 3286,
      "Gemma": 3287,
      "internet": 3288,
      "favor": 3289,
      "colour": 3290,
      "Phoebe": 3291,
      "Anita": 3292,
      "Heidi": 3293,
      "iana": 3294,
      "complain": 3295,
      "Nicky": 3296,
      "Kai": 3297,
      "Bon": 3298,
      "Dou": 3299,
      "Pr": 3300,
      "bt": 3301,
      "fing": 3302,
      "mach": 3303,
      "rep": 3304,
      "vey": 3305,
      "irst": 3306,
      "ower": 3307,
      "ucks": 3308,
      "plane": 3309,
      "Caleb": 3310,
      "Cong": 3311,
      "Hm": 3312,
      "Next": 3313,
      "lend": 3314,
      "shi": 3315,
      "offers": 3316,
      "Emi": 3317,
      "broken": 3318,
      "visiting": 3319,
      "sitting": 3320,
      "Angie": 3321,
      "Isabel": 3322,
      "Austin": 3323,
      "floor": 3324,
      "opinion": 3325,
      "Scarlet": 3326,
      "Catherine": 3327,
      "Happ": 3328,
      "Zach": 3329,
      "ax": 3330,
      "fire": 3331,
      "living": 3332,
      ":))": 3333,
      "arden": 3334,
      "Sheila": 3335,
      "Jude": 3336,
      "strange": 3337,
      "posted": 3338,
      "Elisabeth": 3339,
      "Get": 3340,
      "jack": 3341,
      "zz": 3342,
      "Marta": 3343,
      "upset": 3344,
      "Anton": 3345,
      "Luc": 3346,
      "Rosie": 3347,
      ":-(": 3348,
      "Julian": 3349,
      "Damian": 3350,
      "deadline": 3351,
      "ban": 3352,
      "hus": 3353,
      "ming": 3354,
      "mall": 3355,
      "opp": 3356,
      "size": 3357,
      "eng": 3358,
      "himself": 3359,
      "convers": 3360,
      "Seth": 3361,
      "decis": 3362,
      "Arnold": 3363,
      "Zara": 3364,
      "ative": 3365,
      "beach": 3366,
      "????": 3367,
      "Alexis": 3368,
      "aaaa": 3369,
      "Congr": 3370,
      "Riley": 3371,
      "hold": 3372,
      "doll": 3373,
      "sucks": 3374,
      "anybody": 3375,
      "Paulina": 3376,
      "Ronald": 3377,
      "sleeping": 3378,
      "contro": 3379,
      "university": 3380,
      "Probably": 3381,
      "hung": 3382,
      "copy": 3383,
      "Dominic": 3384,
      "18": 3385,
      "Law": 3386,
      "Same": 3387,
      "Yup": 3388,
      "tour": 3389,
      "wro": 3390,
      "Dana": 3391,
      "entrance": 3392,
      "wrote": 3393,
      "ctor": 3394,
      "slow": 3395,
      "laugh": 3396,
      "dest": 3397,
      "pregn": 3398,
      "ational": 3399,
      "avin": 3400,
      "played": 3401,
      "appe": 3402,
      "ggy": 3403,
      "Poppy": 3404,
      "Wait": 3405,
      "episode": 3406,
      "Happy": 3407,
      "ER": 3408,
      "Ollie": 3409,
      "Tan": 3410,
      "Tha": 3411,
      "Van": 3412,
      "Wo": 3413,
      "bread": 3414,
      "ef": 3415,
      "hum": 3416,
      "rina": 3417,
      "sat": 3418,
      "yd": 3419,
      "yup": 3420,
      "outh": 3421,
      "reme": 3422,
      "rik": 3423,
      "Carter": 3424,
      "everybody": 3425,
      "Christine": 3426,
      "lives": 3427,
      "training": 3428,
      "Gwen": 3429,
      "fancy": 3430,
      "zing": 3431,
      "host": 3432,
      "rianna": 3433,
      "ada": 3434,
      "calling": 3435,
      "eating": 3436,
      "centre": 3437,
      "Alexander": 3438,
      "experience": 3439,
      "Cal": 3440,
      "Tara": 3441,
      "cred": 3442,
      "daught": 3443,
      "ston": 3444,
      "goo": 3445,
      "absolutely": 3446,
      "Mario": 3447,
      "glass": 3448,
      "Aga": 3449,
      "Clark": 3450,
      "turned": 3451,
      "police": 3452,
      "collect": 3453,
      "received": 3454,
      "hungry": 3455,
      "Too": 3456,
      "bon": 3457,
      "logy": 3458,
      "ending": 3459,
      "Amer": 3460,
      "Claudia": 3461,
      "Ronnie": 3462,
      "easier": 3463,
      "Harper": 3464,
      "current": 3465,
      "young": 3466,
      "Fi": 3467,
      "ON": 3468,
      "Ren": 3469,
      "Randy": 3470,
      "Vin": 3471,
      "Xavier": 3472,
      "flying": 3473,
      "ient": 3474,
      "oc": 3475,
      "pan": 3476,
      "ouble": 3477,
      "chill": 3478,
      "spec": 3479,
      "suppose": 3480,
      "priv": 3481,
      "delay": 3482,
      "celebrate": 3483,
      "Guys": 3484,
      "Aly": 3485,
      "thia": 3486,
      "nobody": 3487,
      "bother": 3488,
      "grad": 3489,
      "writ": 3490,
      "Billy": 3491,
      "Naomi": 3492,
      "ski": 3493,
      "Mrs": 3494,
      "Bryan": 3495,
      "results": 3496,
      "husband": 3497,
      "French": 3498,
      "IT": 3499,
      "Kayla": 3500,
      "creat": 3501,
      "hm": 3502,
      "tney": 3503,
      "artic": 3504,
      "history": 3505,
      "assign": 3506,
      "scared": 3507,
      "trouble": 3508,
      "Reg": 3509,
      "graph": 3510,
      "Call": 3511,
      "cup": 3512,
      "ki": 3513,
      "bel": 3514,
      "ield": 3515,
      "cance": 3516,
      "elt": 3517,
      "herself": 3518,
      "math": 3519,
      "conne": 3520,
      "Howard": 3521,
      "anned": 3522,
      "Anything": 3523,
      "prepared": 3524,
      "confirm": 3525,
      "Italian": 3526,
      "Mill": 3527,
      "Sab": 3528,
      "Todd": 3529,
      "hon": 3530,
      "ned": 3531,
      "ature": 3532,
      "nope": 3533,
      "propo": 3534,
      "prepar": 3535,
      "pool": 3536,
      "Christian": 3537,
      "Lizzy": 3538,
      "Abby": 3539,
      "guest": 3540,
      "schedule": 3541,
      "Cha": 3542,
      "Ele": 3543,
      "Id": 3544,
      "fut": 3545,
      "ks": 3546,
      "isha": 3547,
      "haps": 3548,
      "comfort": 3549,
      "cheese": 3550,
      "Susie": 3551,
      "Katy": 3552,
      "hurry": 3553,
      "agreed": 3554,
      "considering": 3555,
      "Ba": 3556,
      "Give": 3557,
      "Nah": 3558,
      "eh": 3559,
      "anim": 3560,
      "gover": 3561,
      "lose": 3562,
      "tiv": 3563,
      "avo": 3564,
      "Danielle": 3565,
      "window": 3566,
      "recipe": 3567,
      "Felix": 3568,
      "Scarlett": 3569,
      "17": 3570,
      "Bor": 3571,
      "Mac": 3572,
      "pet": 3573,
      "cember": 3574,
      "July": 3575,
      "wont": 3576,
      "shower": 3577,
      "organiz": 3578,
      "Lynn": 3579,
      "stressed": 3580,
      "straight": 3581,
      "Greta": 3582,
      "daughter": 3583,
      "Ga": 3584,
      "Hall": 3585,
      "Ivy": 3586,
      "York": 3587,
      "YOU": 3588,
      "^^": 3589,
      "ias": 3590,
      "spl": 3591,
      "incl": 3592,
      "stick": 3593,
      "icious": 3594,
      "worst": 3595,
      "service": 3596,
      "example": 3597,
      "certain": 3598,
      "invites": 3599,
      "travelling": 3600,
      "future": 3601,
      "lene": 3602,
      "sle": 3603,
      "info": 3604,
      "inny": 3605,
      "sula": 3606,
      "uses": 3607,
      "space": 3608,
      "ground": 3609,
      "twice": 3610,
      "missing": 3611,
      "passed": 3612,
      "Frances": 3613,
      "camp": 3614,
      "Violet": 3615,
      "Cra": 3616,
      "Fab": 3617,
      "Fuck": 3618,
      "Spain": 3619,
      "Tat": 3620,
      "ime": 3621,
      "anny": 3622,
      "oun": 3623,
      "ama": 3624,
      "shirt": 3625,
      "yea": 3626,
      "cheaper": 3627,
      "Judith": 3628,
      "tru": 3629,
      "liter": 3630,
      "downstairs": 3631,
      "proud": 3632,
      "Kathy": 3633,
      "Tere": 3634,
      "style": 3635,
      "grandma": 3636,
      "Ama": 3637,
      "Last": 3638,
      "btw": 3639,
      "gro": 3640,
      "hind": 3641,
      "ses": 3642,
      "zo": 3643,
      "ils": 3644,
      "against": 3645,
      "Never": 3646,
      "Grand": 3647,
      "lesson": 3648,
      "enjoyed": 3649,
      "fied": 3650,
      "correct": 3651,
      "managed": 3652,
      "Layla": 3653,
      "Mila": 3654,
      "Morgan": 3655,
      "Miles": 3656,
      "fic": 3657,
      "felt": 3658,
      "orrow": 3659,
      "ility": 3660,
      "afterwards": 3661,
      "Janice": 3662,
      "choco": 3663,
      "print": 3664,
      "Christina": 3665,
      "clear": 3666,
      "Natalia": 3667,
      "women": 3668,
      "HAHA": 3669,
      "information": 3670,
      "fantastic": 3671,
      "atulations": 3672,
      "conversation": 3673,
      "pregnant": 3674,
      "Cas": 3675,
      "Gill": 3676,
      "Hanna": 3677,
      "Park": 3678,
      "dle": 3679,
      "mood": 3680,
      "Tomorrow": 3681,
      "hahahaha": 3682,
      "Jackson": 3683,
      "mond": 3684,
      "December": 3685,
      "syste": 3686,
      "pleasure": 3687,
      "swimm": 3688,
      "Awesome": 3689,
      "Teresa": 3690,
      "By": 3691,
      "Cour": 3692,
      "cap": 3693,
      "pu": 3694,
      "sco": 3695,
      "ism": 3696,
      "Marcus": 3697,
      "tract": 3698,
      "cash": 3699,
      "Teddy": 3700,
      "Damn": 3701,
      "Leslie": 3702,
      "beginning": 3703,
      "depends": 3704,
      "Vanessa": 3705,
      "Iris": 3706,
      "Kay": 3707,
      "Lin": 3708,
      "Pre": 3709,
      "San": 3710,
      "Yo": 3711,
      "ors": 3712,
      "behind": 3713,
      "planned": 3714,
      "urt": 3715,
      "promo": 3716,
      "lets": 3717,
      "type": 3718,
      "Maddie": 3719,
      "Black": 3720,
      "Cheryl": 3721,
      "Gavin": 3722,
      "Way": 3723,
      "ele": 3724,
      "eyes": 3725,
      "fy": 3726,
      "faul": 3727,
      "iah": 3728,
      "ige": 3729,
      "vol": 3730,
      "meat": 3731,
      "note": 3732,
      "ties": 3733,
      "obvious": 3734,
      "program": 3735,
      "didnt": 3736,
      "boo": 3737,
      "diet": 3738,
      "Elena": 3739,
      "Joanne": 3740,
      "bathroom": 3741,
      "decision": 3742,
      "Sil": 3743,
      "Troy": 3744,
      "garden": 3745,
      "smo": 3746,
      "sess": 3747,
      "tv": 3748,
      "tough": 3749,
      "whe": 3750,
      "allow": 3751,
      "whats": 3752,
      "fell": 3753,
      "worked": 3754,
      "wake": 3755,
      "discount": 3756,
      "Timothy": 3757,
      "anger": 3758,
      "Clare": 3759,
      "smart": 3760,
      "strong": 3761,
      "docu": 3762,
      "Cathy": 3763,
      "Kylie": 3764,
      "issues": 3765,
      "product": 3766,
      "Ursula": 3767,
      "football": 3768,
      "Emilia": 3769,
      "Nad": 3770,
      "bucks": 3771,
      "cry": 3772,
      "egg": 3773,
      "pric": 3774,
      "ron": 3775,
      "tf": 3776,
      "tina": 3777,
      "tom": 3778,
      "argu": 3779,
      "vet": 3780,
      "lies": 3781,
      "comm": 3782,
      "ards": 3783,
      "Brid": 3784,
      "wonderful": 3785,
      "vote": 3786,
      "langu": 3787,
      "Brandon": 3788,
      "swimming": 3789,
      "AM": 3790,
      "dark": 3791,
      "tem": 3792,
      "notic": 3793,
      "tax": 3794,
      "essay": 3795,
      "quit": 3796,
      "students": 3797,
      "ctions": 3798,
      "wearing": 3799,
      "wishes": 3800,
      "building": 3801,
      "Regina": 3802,
      "Ms": 3803,
      "bike": 3804,
      "oes": 3805,
      "ines": 3806,
      "anish": 3807,
      "tek": 3808,
      "ended": 3809,
      "Rosa": 3810,
      "Natasha": 3811,
      "lady": 3812,
      "transfer": 3813,
      "agrees": 3814,
      "arrange": 3815,
      "system": 3816,
      "16": 3817,
      "First": 3818,
      "Hil": 3819,
      "Mal": 3820,
      "Pear": 3821,
      "bum": 3822,
      "dent": 3823,
      "iant": 3824,
      "power": 3825,
      "xo": 3826,
      "ino": 3827,
      "ense": 3828,
      "ality": 3829,
      "ific": 3830,
      "feed": 3831,
      "unfortunately": 3832,
      "plus": 3833,
      "Harvey": 3834,
      "Something": 3835,
      "Today": 3836,
      "Bruno": 3837,
      "Everything": 3838,
      "piece": 3839,
      "Russ": 3840,
      "Hunter": 3841,
      "Agatha": 3842,
      "Kam": 3843,
      "Mil": 3844,
      "Wanda": 3845,
      "ging": 3846,
      "ordered": 3847,
      "state": 3848,
      "Georgia": 3849,
      "flowers": 3850,
      "Glen": 3851,
      "Sup": 3852,
      "apo": 3853,
      "danc": 3854,
      "ied": 3855,
      "ram": 3856,
      "record": 3857,
      "shut": 3858,
      "Its": 3859,
      "Also": 3860,
      "cats": 3861,
      "Valer": 3862,
      "1st": 3863,
      "Len": 3864,
      "Oc": 3865,
      "Sof": 3866,
      "dum": 3867,
      "fat": 3868,
      "tit": 3869,
      "erc": 3870,
      "hah": 3871,
      "vegan": 3872,
      "cos": 3873,
      "mob": 3874,
      "Keith": 3875,
      "?!?!": 3876,
      "cookies": 3877,
      "college": 3878,
      "simple": 3879,
      "orgeous": 3880,
      "selves": 3881,
      "practice": 3882,
      "favorite": 3883,
      "article": 3884,
      "Drew": 3885,
      "Fel": 3886,
      "Om": 3887,
      "Ram": 3888,
      "cla": 3889,
      "cous": 3890,
      "dating": 3891,
      "fb": 3892,
      "research": 3893,
      "anywhere": 3894,
      "enty": 3895,
      "shame": 3896,
      "fridge": 3897,
      "single": 3898,
      "Isabelle": 3899,
      "Erica": 3900,
      "Only": 3901,
      "respons": 3902,
      "ING": 3903,
      "Aiden": 3904,
      "rilliant": 3905,
      "Kasia": 3906,
      "figure": 3907,
      "fault": 3908,
      "14": 3909,
      "Fl": 3910,
      "Hill": 3911,
      "Jod": 3912,
      "four": 3913,
      "ride": 3914,
      "zie": 3915,
      "rena": 3916,
      "asap": 3917,
      "asleep": 3918,
      "area": 3919,
      "previous": 3920,
      "Alicia": 3921,
      "Johnny": 3922,
      "stopped": 3923,
      "page": 3924,
      "topher": 3925,
      "Daria": 3926,
      "bloody": 3927,
      "Dennis": 3928,
      "Florence": 3929,
      "Joyce": 3930,
      "Faith": 3931,
      "Com": 3932,
      "bal": 3933,
      "oul": 3934,
      "medi": 3935,
      "ardo": 3936,
      "idk": 3937,
      "color": 3938,
      "els": 3939,
      "Marty": 3940,
      "cell": 3941,
      "dele": 3942,
      "gifts": 3943,
      "happening": 3944,
      "Joey": 3945,
      "keeps": 3946,
      "spot": 3947,
      "doubt": 3948,
      "cancelled": 3949,
      "chocolate": 3950,
      "Bridget": 3951,
      "Dr": 3952,
      "Ir": 3953,
      "bing": 3954,
      "cation": 3955,
      "fly": 3956,
      "memor": 3957,
      "iti": 3958,
      "weight": 3959,
      "hood": 3960,
      "tells": 3961,
      "decor": 3962,
      "desk": 3963,
      "Hugo": 3964,
      "Kitty": 3965,
      "relation": 3966,
      "Renee": 3967,
      "Day": 3968,
      "Die": 3969,
      "Tra": 3970,
      "Tess": 3971,
      "bat": 3972,
      "dunno": 3973,
      "kick": 3974,
      "pes": 3975,
      "vier": 3976,
      "reach": 3977,
      "eron": 3978,
      "Marion": 3979,
      "shif": 3980,
      "exerc": 3981,
      "ianne": 3982,
      "Rome": 3983,
      "Matilda": 3984,
      "Gregory": 3985,
      "hurt": 3986,
      "basically": 3987,
      "professor": 3988,
      "Gabrielle": 3989,
      "noticed": 3990,
      "Diego": 3991,
      "LL": 3992,
      "Tris": 3993,
      "YES": 3994,
      "gorgeous": 3995,
      "vous": 3996,
      "ican": 3997,
      "sooo": 3998,
      "pres": 3999,
      "Luis": 4000,
      "January": 4001,
      "Sammy": 4002,
      "bitch": 4003,
      "Camilla": 4004,
      "Darren": 4005,
      "Josephine": 4006,
      "Berlin": 4007,
      "Hilary": 4008,
      "Fo": 4009,
      "NY": 4010,
      "Sher": 4011,
      "Tur": 4012,
      "crow": 4013,
      "sn": 4014,
      "soup": 4015,
      "reserv": 4016,
      "toile": 4017,
      "alous": 4018,
      "urgent": 4019,
      "focus": 4020,
      "Brook": 4021,
      "HAT": 4022,
      "costs": 4023,
      "urious": 4024,
      "Spanish": 4025,
      "honestly": 4026,
      "Sabrina": 4027,
      "preparing": 4028,
      "Cris": 4029,
      "Que": 4030,
      "Ter": 4031,
      "eye": 4032,
      "mi": 4033,
      "reck": 4034,
      "veget": 4035,
      "seum": 4036,
      "arely": 4037,
      "department": 4038,
      "urch": 4039,
      "Alright": 4040,
      "helped": 4041,
      "gives": 4042,
      "regular": 4043,
      "Olivier": 4044,
      "Timmy": 4045,
      "Shir": 4046,
      "psy": 4047,
      "fru": 4048,
      "cret": 4049,
      "icular": 4050,
      "ienna": 4051,
      "client": 4052,
      "ountain": 4053,
      "crossed": 4054,
      "entire": 4055,
      "private": 4056,
      "comfortable": 4057,
      "Ac": 4058,
      "Even": 4059,
      "Nik": 4060,
      "Try": 4061,
      "dry": 4062,
      "ience": 4063,
      "pink": 4064,
      "instru": 4065,
      "atre": 4066,
      "ising": 4067,
      "social": 4068,
      "sey": 4069,
      "hates": 4070,
      "notice": 4071,
      "unny": 4072,
      "dev": 4073,
      "Carson": 4074,
      "Juan": 4075,
      "Karl": 4076,
      "cleaning": 4077,
      "options": 4078,
      "manager": 4079,
      "healthy": 4080,
      "AA": 4081,
      "Katherine": 4082,
      "Tiff": 4083,
      "fers": 4084,
      "hy": 4085,
      "erg": 4086,
      "issed": 4087,
      "roll": 4088,
      "particular": 4089,
      "aster": 4090,
      "brand": 4091,
      "Jenna": 4092,
      "picking": 4093,
      "jealous": 4094,
      "born": 4095,
      "Edgar": 4096,
      "Ricky": 4097,
      "similar": 4098,
      "words": 4099,
      "middle": 4100,
      "fresh": 4101,
      "ynthia": 4102,
      "vacation": 4103,
      "Chad": 4104,
      "Ot": 4105,
      "Ty": 4106,
      "bi": 4107,
      "fab": 4108,
      "gre": 4109,
      "har": 4110,
      "meal": 4111,
      "neth": 4112,
      "cancel": 4113,
      "elma": 4114,
      "acks": 4115,
      "brought": 4116,
      "apparently": 4117,
      "Isaac": 4118,
      "boys": 4119,
      "calm": 4120,
      "raining": 4121,
      "listening": 4122,
      "health": 4123,
      "jacket": 4124,
      "control": 4125,
      "Lawrence": 4126,
      "assignment": 4127,
      "Wayne": 4128,
      "Bas": 4129,
      "Yuri": 4130,
      "cul": 4131,
      "dance": 4132,
      "elect": 4133,
      "jour": 4134,
      "mand": 4135,
      "non": 4136,
      "tany": 4137,
      "andler": 4138,
      "impro": 4139,
      "March": 4140,
      "mag": 4141,
      "Thx": 4142,
      "friday": 4143,
      "mission": 4144,
      "Brittany": 4145,
      "google": 4146,
      "products": 4147,
      "mobile": 4148,
      "crowd": 4149,
      "Chel": 4150,
      "Dee": 4151,
      "Lex": 4152,
      "Roman": 4153,
      "Tori": 4154,
      "fill": 4155,
      "fur": 4156,
      "ore": 4157,
      "pity": 4158,
      "infor": 4159,
      "sold": 4160,
      "ache": 4161,
      "adv": 4162,
      "plenty": 4163,
      "Chandler": 4164,
      "museum": 4165,
      "otherwise": 4166,
      "akes": 4167,
      "mistake": 4168,
      "hibit": 4169,
      "anni": 4170,
      "bigger": 4171,
      "Shar": 4172,
      "heading": 4173,
      "deser": 4174,
      "expected": 4175,
      "public": 4176,
      "charac": 4177,
      "delicious": 4178,
      "Filip": 4179,
      "split": 4180,
      "Glad": 4181,
      "Has": 4182,
      "Tab": 4183,
      "gas": 4184,
      "pen": 4185,
      "become": 4186,
      "asy": 4187,
      "pls": 4188,
      "aff": 4189,
      "ummer": 4190,
      "caught": 4191,
      "disappoint": 4192,
      "Hailey": 4193,
      "Serena": 4194,
      "awful": 4195,
      "famous": 4196,
      "Brett": 4197,
      "Jayden": 4198,
      "descri": 4199,
      "possib": 4200,
      "walking": 4201,
      "flights": 4202,
      "Doug": 4203,
      "cousin": 4204,
      "Hillary": 4205,
      "toilet": 4206,
      "24": 4207,
      "Aria": 4208,
      "Gail": 4209,
      "Honey": 4210,
      "Ric": 4211,
      "owe": 4212,
      "rich": 4213,
      "sli": 4214,
      "tend": 4215,
      "une": 4216,
      "yer": 4217,
      "atch": 4218,
      "topic": 4219,
      "chie": 4220,
      "...?": 4221,
      "prob": 4222,
      "whenever": 4223,
      "everywhere": 4224,
      "spir": 4225,
      "nervous": 4226,
      "Freder": 4227,
      "student": 4228,
      "ugs": 4229,
      "Enjoy": 4230,
      "annoying": 4231,
      "Courtney": 4232,
      "language": 4233,
      "Tiffany": 4234,
      "((": 4235,
      "Evie": 4236,
      "Pi": 4237,
      "est": 4238,
      "field": 4239,
      "ged": 4240,
      "ran": 4241,
      "xit": 4242,
      "third": 4243,
      "review": 4244,
      "ises": 4245,
      "lee": 4246,
      "level": 4247,
      "wever": 4248,
      "amp": 4249,
      "France": 4250,
      "final": 4251,
      "nights": 4252,
      "Didn": 4253,
      "Anyone": 4254,
      "More": 4255,
      "media": 4256,
      "ggie": 4257,
      "settle": 4258,
      "Simone": 4259,
      "iculous": 4260,
      "songs": 4261,
      "Jesse": 4262,
      "dentist": 4263,
      "Shirley": 4264,
      "Chelsea": 4265,
      "Lori": 4266,
      "Pal": 4267,
      "dist": 4268,
      "ez": 4269,
      "rr": 4270,
      "step": 4271,
      "tery": 4272,
      "raham": 4273,
      "exhibit": 4274,
      "scri": 4275,
      "screen": 4276,
      "helps": 4277,
      "Monika": 4278,
      "checking": 4279,
      "Nelly": 4280,
      "decent": 4281,
      "Grant": 4282,
      "lessons": 4283,
      "surger": 4284,
      "driver": 4285,
      "crap": 4286,
      "Darcy": 4287,
      "About": 4288,
      "People": 4289,
      "mentioned": 4290,
      "Debbie": 4291,
      "Esme": 4292,
      "advises": 4293,
      "fingers": 4294,
      "Silvia": 4295,
      "whether": 4296,
      "prices": 4297,
      "Omg": 4298,
      "relationship": 4299,
      "reservation": 4300,
      "Ally": 4301,
      "Had": 4302,
      "Macy": 4303,
      "Rap": 4304,
      "Swe": 4305,
      "Wes": 4306,
      "Yu": 4307,
      "fl": 4308,
      "tomat": 4309,
      "meant": 4310,
      "although": 4311,
      "uncle": 4312,
      "iously": 4313,
      "Star": 4314,
      "Inter": 4315,
      "Jacqu": 4316,
      "dogs": 4317,
      "changing": 4318,
      "changes": 4319,
      "given": 4320,
      "Stephen": 4321,
      "Morris": 4322,
      "Alexandra": 4323,
      "Tamara": 4324,
      "Millie": 4325,
      "Cora": 4326,
      "Gil": 4327,
      "Mau": 4328,
      "Mex": 4329,
      "Sis": 4330,
      "Sasha": 4331,
      "Tessa": 4332,
      "UK": 4333,
      "cand": 4334,
      "gers": 4335,
      "inn": 4336,
      "Christopher": 4337,
      "istic": 4338,
      "Isn": 4339,
      "joining": 4340,
      "design": 4341,
      "Connie": 4342,
      "machine": 4343,
      "destroy": 4344,
      "satis": 4345,
      "Sofia": 4346,
      "22": 4347,
      "Bert": 4348,
      "Jody": 4349,
      "Jared": 4350,
      "bill": 4351,
      "mountain": 4352,
      "por": 4353,
      "vid": 4354,
      "ering": 4355,
      "vered": 4356,
      "kept": 4357,
      "riam": 4358,
      "perhaps": 4359,
      "Johnson": 4360,
      "Remember": 4361,
      "intro": 4362,
      "Shit": 4363,
      "200": 4364,
      "Poor": 4365,
      "exciting": 4366,
      "Looks": 4367,
      "position": 4368,
      "Pearl": 4369,
      "Kamil": 4370,
      "Girl": 4371,
      "Kon": 4372,
      "Sat": 4373,
      "Send": 4374,
      "Vince": 4375,
      "ctive": 4376,
      "dates": 4377,
      "fac": 4378,
      "five": 4379,
      "tech": 4380,
      "irk": 4381,
      "prefers": 4382,
      "Stacey": 4383,
      "Frankie": 4384,
      "compet": 4385,
      "medic": 4386,
      "exams": 4387,
      "chap": 4388,
      "corner": 4389,
      "Kristen": 4390,
      "Suzanne": 4391,
      "ridiculous": 4392,
      "washing": 4393,
      "dollars": 4394,
      "Vincent": 4395,
      "avoid": 4396,
      "Tatiana": 4397,
      "grocer": 4398,
      "eggs": 4399,
      ";/": 4400,
      "Harri": 4401,
      "Ivan": 4402,
      "Lila": 4403,
      "Port": 4404,
      "fed": 4405,
      "grow": 4406,
      "jump": 4407,
      "joking": 4408,
      "inese": 4409,
      "hall": 4410,
      "icy": 4411,
      "ghan": 4412,
      "covered": 4413,
      "Luna": 4414,
      "Shelly": 4415,
      "iano": 4416,
      "shops": 4417,
      "Franklin": 4418,
      "shows": 4419,
      "closed": 4420,
      "Harold": 4421,
      "Denise": 4422,
      "hoping": 4423,
      "Wilson": 4424,
      "delivery": 4425,
      "Colin": 4426,
      "written": 4427,
      "Harriet": 4428,
      "AN": 4429,
      "Cuba": 4430,
      "Cynthia": 4431,
      "Okey": 4432,
      "Sal": 4433,
      "bra": 4434,
      "cing": 4435,
      "curious": 4436,
      "mill": 4437,
      "rout": 4438,
      "aring": 4439,
      "album": 4440,
      "church": 4441,
      "teen": 4442,
      "somehow": 4443,
      "unity": 4444,
      "Luk": 4445,
      "Carly": 4446,
      "tran": 4447,
      "quality": 4448,
      "udy": 4449,
      "ables": 4450,
      "Definitely": 4451,
      "Neil": 4452,
      "Archie": 4453,
      "aaa": 4454,
      "!!!!!!!!": 4455,
      "Brexit": 4456,
      "access": 4457,
      "woke": 4458,
      "blood": 4459,
      "package": 4460,
      "subject": 4461,
      "parking": 4462,
      "Polish": 4463,
      "neighbor": 4464,
      "yoga": 4465,
      "issue": 4466,
      "Hayden": 4467,
      "guests": 4468,
      "includ": 4469,
      "slept": 4470,
      "Craig": 4471,
      "literally": 4472,
      "apolog": 4473,
      "dancing": 4474,
      "disappointed": 4475,
      "Fre": 4476,
      "Jade": 4477,
      "Talk": 4478,
      "rand": 4479,
      "theatre": 4480,
      "esco": 4481,
      "lda": 4482,
      "cohol": 4483,
      "admit": 4484,
      "chi": 4485,
      "within": 4486,
      "Marge": 4487,
      "antic": 4488,
      "terri": 4489,
      "anya": 4490,
      "Anette": 4491,
      "profile": 4492,
      "spare": 4493,
      "dison": 4494,
      "Mathew": 4495,
      "visited": 4496,
      "Jeffrey": 4497,
      "ival": 4498,
      "charge": 4499,
      "failed": 4500,
      "Guess": 4501,
      "Miriam": 4502,
      "Idk": 4503,
      "Boris": 4504,
      "60": 4505,
      "80": 4506,
      "8pm": 4507,
      "Bu": 4508,
      "Crist": 4509,
      "From": 4510,
      "Jax": 4511,
      "cab": 4512,
      "danger": 4513,
      "ired": 4514,
      "sir": 4515,
      "wtf": 4516,
      "itar": 4517,
      "sted": 4518,
      "stal": 4519,
      "selling": 4520,
      "secret": 4521,
      "ala": 4522,
      "ofc": 4523,
      "ustr": 4524,
      "known": 4525,
      "ause": 4526,
      "depress": 4527,
      "phones": 4528,
      "eez": 4529,
      "thalie": 4530,
      "Street": 4531,
      "hahahah": 4532,
      "Nathalie": 4533,
      "ladies": 4534,
      "Seriously": 4535,
      "Paige": 4536,
      "Apparently": 4537,
      "Bel": 4538,
      "Mis": 4539,
      "brilliant": 4540,
      "saturday": 4541,
      "silly": 4542,
      "accom": 4543,
      "roat": 4544,
      "necess": 4545,
      "code": 4546,
      "veral": 4547,
      "laund": 4548,
      "!!!!!": 4549,
      "sale": 4550,
      "iler": 4551,
      "perfor": 4552,
      "scary": 4553,
      "calls": 4554,
      "helping": 4555,
      "latest": 4556,
      "Cole": 4557,
      "Kath": 4558,
      "Kenneth": 4559,
      "invitation": 4560,
      "Jesus": 4561,
      "Beatrice": 4562,
      "opport": 4563,
      "13": 4564,
      "EU": 4565,
      "Red": 4566,
      "Ula": 4567,
      "ahead": 4568,
      "national": 4569,
      "ays": 4570,
      "ution": 4571,
      "usting": 4572,
      "ppl": 4573,
      "letter": 4574,
      "Mickey": 4575,
      "videos": 4576,
      "cru": 4577,
      "German": 4578,
      "colleag": 4579,
      "messages": 4580,
      "Check": 4581,
      "Olaf": 4582,
      "surgery": 4583,
      "AT": 4584,
      "Mindy": 4585,
      "rd": 4586,
      "wit": 4587,
      "relat": 4588,
      "youre": 4589,
      "lead": 4590,
      "lied": 4591,
      "idia": 4592,
      "idiot": 4593,
      "uts": 4594,
      "fever": 4595,
      "inder": 4596,
      "ilyn": 4597,
      "bruary": 4598,
      "track": 4599,
      "serve": 4600,
      "cafe": 4601,
      "mater": 4602,
      "sky": 4603,
      "organize": 4604,
      "Het": 4605,
      "Mitch": 4606,
      "Tanya": 4607,
      "euro": 4608,
      "lar": 4609,
      "mic": 4610,
      "var": 4611,
      "respect": 4612,
      "icated": 4613,
      "local": 4614,
      "ima": 4615,
      "suc": 4616,
      "lazy": 4617,
      "agram": 4618,
      "contin": 4619,
      "offic": 4620,
      "Leila": 4621,
      "stayed": 4622,
      "bringing": 4623,
      "invol": 4624,
      "paying": 4625,
      "recommended": 4626,
      "Allie": 4627,
      "Gabi": 4628,
      "Magda": 4629,
      "finishing": 4630,
      "wallet": 4631,
      "Sidney": 4632,
      "Casper": 4633,
      "Nadia": 4634,
      "psycho": 4635,
      "7pm": 4636,
      "gara": 4637,
      "jah": 4638,
      "mix": 4639,
      "nite": 4640,
      "pissed": 4641,
      "ero": 4642,
      "hem": 4643,
      "alcohol": 4644,
      ".....": 4645,
      "nel": 4646,
      "ady": 4647,
      "sume": 4648,
      "term": 4649,
      "Always": 4650,
      "Luca": 4651,
      "joke": 4652,
      "Meghan": 4653,
      "Haven": 4654,
      "apan": 4655,
      "tention": 4656,
      "frustr": 4657,
      "password": 4658,
      "create": 4659,
      "Nichol": 4660,
      "condition": 4661,
      "accord": 4662,
      "Karol": 4663,
      "promised": 4664,
      "Lindsey": 4665,
      "pasta": 4666,
      "specific": 4667,
      "session": 4668,
      "pressure": 4669,
      "Kier": 4670,
      "Our": 4671,
      "bla": 4672,
      "😍😍": 4673,
      "heav": 4674,
      "havent": 4675,
      "bella": 4676,
      "butter": 4677,
      "Joel": 4678,
      "olas": 4679,
      "cking": 4680,
      "Think": 4681,
      "stor": 4682,
      "apple": 4683,
      "clock": 4684,
      "Eddie": 4685,
      "bull": 4686,
      "Denis": 4687,
      "Shawn": 4688,
      "draw": 4689,
      "throwing": 4690,
      "general": 4691,
      "convinced": 4692,
      "Valerie": 4693,
      "exhibition": 4694,
      "AP": 4695,
      "Bri": 4696,
      "Ci": 4697,
      "Summer": 4698,
      "_file": 4699,
      "gio": 4700,
      "ns": 4701,
      "ped": 4702,
      "tre": 4703,
      "rele": 4704,
      "thesis": 4705,
      "ico": 4706,
      "several": 4707,
      "active": 4708,
      "iel": 4709,
      "sud": 4710,
      "Noel": 4711,
      "iling": 4712,
      "risk": 4713,
      "concer": 4714,
      "eee": 4715,
      "trick": 4716,
      "grid": 4717,
      "Keep": 4718,
      "Willow": 4719,
      "regret": 4720,
      "hopefully": 4721,
      "mostly": 4722,
      "download": 4723,
      "Ellis": 4724,
      "difference": 4725,
      "versary": 4726,
      "Elijah": 4727,
      "singing": 4728,
      "Cameron": 4729,
      "Both": 4730,
      "horror": 4731,
      "learning": 4732,
      "Alfred": 4733,
      "rsly": 4734,
      "Congrats": 4735,
      "claim": 4736,
      "Trish": 4737,
      "Otto": 4738,
      "anniversary": 4739,
      "introdu": 4740,
      "Dra": 4741,
      "Hans": 4742,
      "Kend": 4743,
      "Xmas": 4744,
      "apart": 4745,
      "fits": 4746,
      "lay": 4747,
      "adul": 4748,
      "impossible": 4749,
      "tered": 4750,
      "tember": 4751,
      "saving": 4752,
      "pose": 4753,
      "Carla": 4754,
      "Kev": 4755,
      "Stefan": 4756,
      "Annette": 4757,
      "Better": 4758,
      "Elias": 4759,
      "texting": 4760,
      "postp": 4761,
      "presents": 4762,
      "total": 4763,
      "salad": 4764,
      "profession": 4765,
      "juice": 4766,
      "Freya": 4767,
      "dangerous": 4768,
      "according": 4769,
      "70": 4770,
      "Aub": 4771,
      "Dex": 4772,
      "Ham": 4773,
      "Japan": 4774,
      "Muri": 4775,
      "OW": 4776,
      "Sep": 4777,
      "bake": 4778,
      "ius": 4779,
      "kk": 4780,
      "pages": 4781,
      "reco": 4782,
      "reali": 4783,
      "velo": 4784,
      "gold": 4785,
      "location": 4786,
      "somebody": 4787,
      "aged": 4788,
      "contract": 4789,
      "chester": 4790,
      "quare": 4791,
      "apply": 4792,
      "specially": 4793,
      "Ingrid": 4794,
      "rooms": 4795,
      "shares": 4796,
      "000": 4797,
      "version": 4798,
      "Gaby": 4799,
      "hhh": 4800,
      "Vicki": 4801,
      "Bonnie": 4802,
      "Gabe": 4803,
      "laundry": 4804,
      "Nicholas": 4805,
      ";(": 4806,
      "Ela": 4807,
      "Fri": 4808,
      "Nel": 4809,
      "Sho": 4810,
      "Yann": 4811,
      "bak": 4812,
      "han": 4813,
      "nit": 4814,
      "sil": 4815,
      "vir": 4816,
      "iny": 4817,
      "orig": 4818,
      "staff": 4819,
      "ela": 4820,
      "ife": 4821,
      "aunt": 4822,
      "anyways": 4823,
      "union": 4824,
      "partner": 4825,
      "guitar": 4826,
      "spee": 4827,
      "Cooper": 4828,
      "picked": 4829,
      "careful": 4830,
      "fucked": 4831,
      "offered": 4832,
      "Doris": 4833,
      "embar": 4834,
      "February": 4835,
      "Mira": 4836,
      "reminds": 4837,
      "sports": 4838,
      "Pretty": 4839,
      "Flora": 4840,
      "performan": 4841,
      "sudden": 4842,
      "Muriel": 4843,
      "origin": 4844,
      "\"?": 4845,
      "3rd": 4846,
      ";*": 4847,
      "Cass": 4848,
      "LE": 4849,
      "Lora": 4850,
      "Raf": 4851,
      "Syd": 4852,
      "Ze": 4853,
      "ado": 4854,
      "gress": 4855,
      "sme": 4856,
      "von": 4857,
      "rett": 4858,
      "attention": 4859,
      "island": 4860,
      "rock": 4861,
      "anta": 4862,
      "rage": 4863,
      "Thea": 4864,
      "Hell": 4865,
      "taste": 4866,
      "seemed": 4867,
      "cars": 4868,
      "Justine": 4869,
      "pical": 4870,
      "Trump": 4871,
      "gged": 4872,
      "spending": 4873,
      "Bethany": 4874,
      "attack": 4875,
      "expecting": 4876,
      "itional": 4877,
      "extreme": 4878,
      "................": 4879,
      "potat": 4880,
      "obviously": 4881,
      "shift": 4882,
      "Konrad": 4883,
      "Cristina": 4884,
      "Cy": 4885,
      "Pio": 4886,
      "RI": 4887,
      "Sienna": 4888,
      "Ton": 4889,
      "Tesco": 4890,
      "bout": 4891,
      "ique": 4892,
      "site": 4893,
      "ttie": 4894,
      "andra": 4895,
      "beers": 4896,
      "goss": 4897,
      "hole": 4898,
      "Marianne": 4899,
      "fest": 4900,
      "anytime": 4901,
      "def": 4902,
      "bow": 4903,
      "Whats": 4904,
      "older": 4905,
      "awk": 4906,
      ":-/": 4907,
      "turns": 4908,
      "personal": 4909,
      "packed": 4910,
      "papers": 4911,
      "document": 4912,
      "Sweet": 4913,
      "mountains": 4914,
      "Piotr": 4915,
      "))": 4916,
      ").": 4917,
      "Cry": 4918,
      "Ida": 4919,
      "Lor": 4920,
      "barely": 4921,
      "center": 4922,
      "ethe": 4923,
      "emo": 4924,
      "equ": 4925,
      "fund": 4926,
      "gay": 4927,
      "py": 4928,
      "rac": 4929,
      "rien": 4930,
      "sup": 4931,
      "irty": 4932,
      "Martina": 4933,
      "upload": 4934,
      "Chuck": 4935,
      "common": 4936,
      "conven": 4937,
      "Shan": 4938,
      "closer": 4939,
      "studies": 4940,
      "ugly": 4941,
      "landed": 4942,
      "Cec": 4943,
      "DDDD": 4944,
      "positive": 4945,
      "empty": 4946,
      "Travis": 4947,
      "Aubrey": 4948,
      "etheart": 4949,
      "Aww": 4950,
      "Bab": 4951,
      "EE": 4952,
      "Erik": 4953,
      "Mc": 4954,
      "Miley": 4955,
      "Stop": 4956,
      "Ven": 4957,
      "bh": 4958,
      "bask": 4959,
      "jor": 4960,
      "mut": 4961,
      "mie": 4962,
      "vot": 4963,
      "wha": 4964,
      "thor": 4965,
      "stat": 4966,
      "ached": 4967,
      "ida": 4968,
      "ides": 4969,
      "odka": 4970,
      "Marilyn": 4971,
      "Chinese": 4972,
      "exchange": 4973,
      "waste": 4974,
      "scr": 4975,
      "quiet": 4976,
      "Rober": 4977,
      "Alexa": 4978,
      "sooner": 4979,
      "divor": 4980,
      "Inst": 4981,
      "Helena": 4982,
      "forgotten": 4983,
      "insane": 4984,
      "Camille": 4985,
      "Bern": 4986,
      "cards": 4987,
      "Peggy": 4988,
      "Everyone": 4989,
      "fixed": 4990,
      "budget": 4991,
      "THE": 4992,
      "credit": 4993,
      "delayed": 4994,
      "satisfied": 4995,
      "Sydney": 4996,
      "2nd": 4997,
      "Aur": 4998,
      "Cause": 4999,
      "Ez": 5000,
      "Especially": 5001,
      "Kla": 5002,
      "Out": 5003,
      "Omar": 5004,
      "VE": 5005,
      "cir": 5006,
      "dick": 5007,
      "data": 5008,
      "fet": 5009,
      "fla": 5010,
      "git": 5011,
      "kiss": 5012,
      "ply": 5013,
      "vember": 5014,
      "behave": 5015,
      "ider": 5016,
      "demand": 5017,
      "surely": 5018,
      "Ada": 5019,
      "forever": 5020,
      "Shane": 5021,
      "direct": 5022,
      "bird": 5023,
      "Seems": 5024,
      "believes": 5025,
      "Harris": 5026,
      "opened": 5027,
      "voice": 5028,
      "sweetie": 5029,
      "reception": 5030,
      "Valent": 5031,
      "camer": 5032,
      "Laila": 5033,
      "Indeed": 5034,
      "reply": 5035,
      "truth": 5036,
      "Jodie": 5037,
      "fruit": 5038,
      "random": 5039,
      "performance": 5040,
      "Aurora": 5041,
      "35": 5042,
      "Arianna": 5043,
      "Bian": 5044,
      "Cate": 5045,
      "Garry": 5046,
      "Ginny": 5047,
      "IS": 5048,
      "Mate": 5049,
      "Maur": 5050,
      "Pab": 5051,
      "Rand": 5052,
      "Time": 5053,
      "bunch": 5054,
      "gate": 5055,
      "itor": 5056,
      "repair": 5057,
      "icip": 5058,
      "lift": 5059,
      "activ": 5060,
      "immedi": 5061,
      "unning": 5062,
      "Jules": 5063,
      "Rox": 5064,
      "Stef": 5065,
      "mates": 5066,
      "dresser": 5067,
      "centr": 5068,
      "points": 5069,
      "period": 5070,
      "loads": 5071,
      "Ceci": 5072,
      "uuuu": 5073,
      "facebook": 5074,
      "quickly": 5075,
      "Rodney": 5076,
      "Kinga": 5077,
      "Congratulations": 5078,
      "occas": 5079,
      "Brooklyn": 5080,
      "garage": 5081,
      "September": 5082,
      "speech": 5083,
      "Crystal": 5084,
      "Bianca": 5085,
      ":'": 5086,
      "Ala": 5087,
      "Cody": 5088,
      "Graham": 5089,
      "Hal": 5090,
      "Kuba": 5091,
      "Lib": 5092,
      "Lidia": 5093,
      "Wor": 5094,
      "gs": 5095,
      "grey": 5096,
      "ola": 5097,
      "yla": 5098,
      "ini": 5099,
      "ination": 5100,
      "ator": 5101,
      "hal": 5102,
      "nest": 5103,
      "tips": 5104,
      "sushi": 5105,
      "temp": 5106,
      "death": 5107,
      "romantic": 5108,
      "file_picture": 5109,
      "letting": 5110,
      "photo_file": 5111,
      "helpful": 5112,
      "finding": 5113,
      "apples": 5114,
      "disg": 5115,
      "announ": 5116,
      "dire": 5117,
      "Conor": 5118,
      "opening": 5119,
      "ashion": 5120,
      "sides": 5121,
      "Hopefully": 5122,
      "Tobias": 5123,
      "popular": 5124,
      "ruin": 5125,
      "Sergio": 5126,
      "properly": 5127,
      "emplo": 5128,
      "title": 5129,
      "journey": 5130,
      "Raphael": 5131,
      "opportunity": 5132,
      "basket": 5133,
      "6pm": 5134,
      "7th": 5135,
      "9pm": 5136,
      "Dary": 5137,
      "ID": 5138,
      "Iz": 5139,
      "Kel": 5140,
      "Kian": 5141,
      "alive": 5142,
      "bf": 5143,
      "jud": 5144,
      "yed": 5145,
      "replace": 5146,
      "ener": 5147,
      "bell": 5148,
      "lig": 5149,
      "nap": 5150,
      "unless": 5151,
      "Dear": 5152,
      "Debor": 5153,
      "plays": 5154,
      "pray": 5155,
      "Most": 5156,
      "swear": 5157,
      "organise": 5158,
      "Conrad": 5159,
      "Cath": 5160,
      "Bradley": 5161,
      "parties": 5162,
      "Someone": 5163,
      "Morning": 5164,
      "Manchester": 5165,
      "Georgina": 5166,
      "cording": 5167,
      "buddy": 5168,
      "deliver": 5169,
      "Zachary": 5170,
      "Calvin": 5171,
      "dumb": 5172,
      "According": 5173,
      "Frederick": 5174,
      "accommod": 5175,
      "heavy": 5176,
      "awkward": 5177,
      "Ezra": 5178,
      "Daryl": 5179,
      ":<": 5180,
      "EA": 5181,
      "Gi": 5182,
      "HE": 5183,
      "Han": 5184,
      "Hor": 5185,
      "Jar": 5186,
      "List": 5187,
      "Vik": 5188,
      "las": 5189,
      "mare": 5190,
      "phe": 5191,
      "vodka": 5192,
      "insur": 5193,
      "oups": 5194,
      "amount": 5195,
      "iffer": 5196,
      "compl": 5197,
      "files": 5198,
      "igno": 5199,
      "particip": 5200,
      "ians": 5201,
      "everyday": 5202,
      "Coll": 5203,
      "turning": 5204,
      "names": 5205,
      "Vera": 5206,
      "Shall": 5207,
      "Norman": 5208,
      "pleasant": 5209,
      "ristan": 5210,
      "Viola": 5211,
      "tube": 5212,
      "switch": 5213,
      "complaining": 5214,
      "laughing": 5215,
      "taxi": 5216,
      "Super": 5217,
      "electric": 5218,
      "recogn": 5219,
      "21": 5220,
      "AY": 5221,
      "Adele": 5222,
      "Mine": 5223,
      "Si": 5224,
      "Sad": 5225,
      "Want": 5226,
      "brown": 5227,
      "bills": 5228,
      "mir": 5229,
      "rush": 5230,
      "sand": 5231,
      "sight": 5232,
      "atmo": 5233,
      "stage": 5234,
      "havi": 5235,
      "vest": 5236,
      "bear": 5237,
      "behavi": 5238,
      "cted": 5239,
      "Keira": 5240,
      "Haz": 5241,
      "Art": 5242,
      "atural": 5243,
      "payment": 5244,
      "sweater": 5245,
      "perfectly": 5246,
      "skin": 5247,
      "sugar": 5248,
      "hairdresser": 5249,
      "Absolutely": 5250,
      "Norma": 5251,
      "Skyler": 5252,
      "install": 5253,
      "****": 5254,
      "convince": 5255,
      "political": 5256,
      "skiing": 5257,
      "animal": 5258,
      "Queen": 5259,
      "Lexi": 5260,
      "success": 5261,
      "gossip": 5262,
      "insurance": 5263,
      "atmosp": 5264,
      "\",": 5265,
      "Bla": 5266,
      "Dunno": 5267,
      "Fair": 5268,
      "House": 5269,
      "Jaz": 5270,
      "Mu": 5271,
      "Since": 5272,
      "brain": 5273,
      "dic": 5274,
      "eve": 5275,
      "nment": 5276,
      "pill": 5277,
      "pump": 5278,
      "tree": 5279,
      "seats": 5280,
      "rix": 5281,
      "vert": 5282,
      "lains": 5283,
      "nails": 5284,
      "Ania": 5285,
      "November": 5286,
      "cheer": 5287,
      "bridge": 5288,
      "shot": 5289,
      "shoot": 5290,
      "stories": 5291,
      "mmmm": 5292,
      "regis": 5293,
      "thoughts": 5294,
      "Neither": 5295,
      "Trudy": 5296,
      "surv": 5297,
      "medical": 5298,
      "Clar": 5299,
      "putting": 5300,
      "Kale": 5301,
      "enjoying": 5302,
      "Phill": 5303,
      "emer": 5304,
      "Juliet": 5305,
      "double": 5306,
      "teaching": 5307,
      "approach": 5308,
      "Carolyn": 5309,
      "advance": 5310,
      "transport": 5311,
      "necessary": 5312,
      "embarr": 5313,
      "extremely": 5314,
      "Aug": 5315,
      "ALL": 5316,
      "Brown": 5317,
      "Dak": 5318,
      "Dude": 5319,
      "Jorge": 5320,
      "Kerry": 5321,
      "Other": 5322,
      "PS": 5323,
      "Pier": 5324,
      "Rad": 5325,
      "Ta": 5326,
      "Tristan": 5327,
      "Winst": 5328,
      "chair": 5329,
      "dirty": 5330,
      "omy": 5331,
      "tbh": 5332,
      "anor": 5333,
      "requ": 5334,
      "asure": 5335,
      "christ": 5336,
      "update": 5337,
      "male": 5338,
      "plant": 5339,
      "develo": 5340,
      "Luck": 5341,
      "phys": 5342,
      "Janette": 5343,
      "White": 5344,
      "Alec": 5345,
      "Around": 5346,
      "invo": 5347,
      "eaten": 5348,
      "gging": 5349,
      "Allison": 5350,
      "wood": 5351,
      "supermarket": 5352,
      "lines": 5353,
      "Bernie": 5354,
      "Uni": 5355,
      "added": 5356,
      "midnight": 5357,
      "huh": 5358,
      "events": 5359,
      "freaking": 5360,
      "confused": 5361,
      "accepted": 5362,
      "Clem": 5363,
      "human": 5364,
      "organizing": 5365,
      "cellent": 5366,
      "improve": 5367,
      "Internet": 5368,
      "Mexico": 5369,
      "immediately": 5370,
      "disgusting": 5371,
      "Listen": 5372,
      "Winston": 5373,
      "6th": 5374,
      "Air": 5375,
      "Kira": 5376,
      "Nig": 5377,
      "South": 5378,
      "ape": 5379,
      "base": 5380,
      "fashion": 5381,
      "oween": 5382,
      "uber": 5383,
      "wind": 5384,
      "eral": 5385,
      "orange": 5386,
      "nose": 5387,
      "allerg": 5388,
      "lope": 5389,
      "ably": 5390,
      "suspect": 5391,
      "tee": 5392,
      "Marry": 5393,
      "Marisa": 5394,
      "tern": 5395,
      "shy": 5396,
      "Nobody": 5397,
      "ops": 5398,
      "tooth": 5399,
      "Whatever": 5400,
      "themselves": 5401,
      "weren": 5402,
      "Going": 5403,
      "Rey": 5404,
      "annon": 5405,
      "badly": 5406,
      "Gray": 5407,
      "standing": 5408,
      "dresses": 5409,
      "Elsie": 5410,
      "headache": 5411,
      "hands": 5412,
      "excuse": 5413,
      "crit": 5414,
      "Looking": 5415,
      "submit": 5416,
      "dropped": 5417,
      "simply": 5418,
      "British": 5419,
      "hopes": 5420,
      "reports": 5421,
      "Plus": 5422,
      "ASAP": 5423,
      "glasses": 5424,
      "American": 5425,
      "crying": 5426,
      "Hetty": 5427,
      "storm": 5428,
      "accommodation": 5429,
      "embarrass": 5430,
      "August": 5431,
      "3pm": 5432,
      "Ald": 5433,
      "Avery": 5434,
      "Aisha": 5435,
      "Goo": 5436,
      "Gree": 5437,
      "Liv": 5438,
      "MA": 5439,
      "OR": 5440,
      "Pad": 5441,
      "Ul": 5442,
      "gf": 5443,
      "kit": 5444,
      "nan": 5445,
      "nah": 5446,
      "pup": 5447,
      "task": 5448,
      "react": 5449,
      "ency": 5450,
      "lder": 5451,
      "Marco": 5452,
      "therap": 5453,
      "Hector": 5454,
      "decl": 5455,
      "boat": 5456,
      "erson": 5457,
      "Addison": 5458,
      "nightmare": 5459,
      "channel": 5460,
      "Canada": 5461,
      "Shannon": 5462,
      "useful": 5463,
      "keeping": 5464,
      "recommendations": 5465,
      "Allen": 5466,
      "texted": 5467,
      "reschedu": 5468,
      "Asia": 5469,
      "Gerald": 5470,
      "costu": 5471,
      "subway": 5472,
      "speaking": 5473,
      "borrowed": 5474,
      "clients": 5475,
      "operation": 5476,
      "Vivian": 5477,
      "politics": 5478,
      "graphy": 5479,
      "government": 5480,
      "commun": 5481,
      "Lennon": 5482,
      "Felicia": 5483,
      "responsible": 5484,
      "Kieran": 5485,
      "atmosphere": 5486,
      "Greece": 5487,
      "BT": 5488,
      "Di": 5489,
      "Nes": 5490,
      "Ned": 5491,
      "Pay": 5492,
      "ST": 5493,
      "bio": 5494,
      "caf": 5495,
      "dig": 5496,
      "fol": 5497,
      "jtek": 5498,
      "nic": 5499,
      "ssa": 5500,
      "yatt": 5501,
      "innie": 5502,
      "onso": 5503,
      "beat": 5504,
      "ased": 5505,
      "soci": 5506,
      "across": 5507,
      "coat": 5508,
      "adays": 5509,
      "shout": 5510,
      "Ange": 5511,
      "degre": 5512,
      "process": 5513,
      "served": 5514,
      "disappe": 5515,
      "funeral": 5516,
      "earth": 5517,
      "Bartek": 5518,
      "However": 5519,
      "Rachael": 5520,
      "sweetheart": 5521,
      "easily": 5522,
      "projects": 5523,
      "handle": 5524,
      "handsome": 5525,
      "Boston": 5526,
      "Sometimes": 5527,
      "gency": 5528,
      "Unfortunately": 5529,
      "Jasper": 5530,
      "Manuel": 5531,
      "signed": 5532,
      "younger": 5533,
      "Gabriella": 5534,
      "Wojtek": 5535,
      "Eleanor": 5536,
      "Halloween": 5537,
      "volun": 5538,
      "settled": 5539,
      "competition": 5540,
      "Roberta": 5541,
      "Klaudia": 5542,
      "degrees": 5543,
      "),": 5544,
      "Aven": 5545,
      "Candy": 5546,
      "Kaz": 5547,
      "Make": 5548,
      "Pene": 5549,
      "Two": 5550,
      "dish": 5551,
      "fle": 5552,
      "fro": 5553,
      "fake": 5554,
      "sam": 5555,
      "scan": 5556,
      "vill": 5557,
      "reunion": 5558,
      "towards": 5559,
      "leen": 5560,
      "willing": 5561,
      "oken": 5562,
      "verly": 5563,
      "suits": 5564,
      "ours": 5565,
      "deb": 5566,
      "depart": 5567,
      "umn": 5568,
      "Petra": 5569,
      "trad": 5570,
      "asey": 5571,
      "groups": 5572,
      "Dont": 5573,
      "mmm": 5574,
      "dishes": 5575,
      "Reggie": 5576,
      "aware": 5577,
      "prin": 5578,
      "shared": 5579,
      "lights": 5580,
      "Elsa": 5581,
      "suggestions": 5582,
      "Angelina": 5583,
      "beauty": 5584,
      "Britney": 5585,
      "Play": 5586,
      "neighbours": 5587,
      "Hayley": 5588,
      "certainly": 5589,
      "Parker": 5590,
      "Milena": 5591,
      "Irma": 5592,
      "Girls": 5593,
      "related": 5594,
      "professional": 5595,
      "occasion": 5596,
      "Izzy": 5597,
      "90": 5598,
      "Cory": 5599,
      "Der": 5600,
      "FA": 5601,
      "Long": 5602,
      "Lane": 5603,
      "Made": 5604,
      "Son": 5605,
      "Santa": 5606,
      "VER": 5607,
      "baking": 5608,
      "econ": 5609,
      "fail": 5610,
      "gig": 5611,
      "ota": 5612,
      "pal": 5613,
      "pun": 5614,
      "pounds": 5615,
      "yum": 5616,
      "zer": 5617,
      "tober": 5618,
      "oring": 5619,
      "encer": 5620,
      "ads": 5621,
      "ability": 5622,
      "Marika": 5623,
      "pper": 5624,
      "workshop": 5625,
      "comment": 5626,
      "cheers": 5627,
      "leted": 5628,
      "grate": 5629,
      "Bea": 5630,
      "Jenson": 5631,
      "booking": 5632,
      "shocked": 5633,
      "trailer": 5634,
      "regard": 5635,
      "Reese": 5636,
      "meetings": 5637,
      "chose": 5638,
      "shitty": 5639,
      "Angelica": 5640,
      "paint": 5641,
      "Amelie": 5642,
      "nearby": 5643,
      "Jonas": 5644,
      "burn": 5645,
      "eventually": 5646,
      "killed": 5647,
      "model": 5648,
      "rude": 5649,
      "Cheers": 5650,
      "Sky": 5651,
      "iiii": 5652,
      "Quite": 5653,
      "patient": 5654,
      "impressed": 5655,
      "congratulations": 5656,
      "currently": 5657,
      "Bailey": 5658,
      "Amazing": 5659,
      "informs": 5660,
      "Ricardo": 5661,
      "Cecilia": 5662,
      "complicated": 5663,
      "emergency": 5664,
      "Penelope": 5665,
      "28": 5666,
      "5th": 5667,
      "Arian": 5668,
      "Des": 5669,
      "Fanny": 5670,
      "Gar": 5671,
      "Ri": 5672,
      "Sa": 5673,
      "WHAT": 5674,
      "bday": 5675,
      "dess": 5676,
      "gain": 5677,
      "kno": 5678,
      "none": 5679,
      "osing": 5680,
      "push": 5681,
      "rup": 5682,
      "sau": 5683,
      "slight": 5684,
      "ories": 5685,
      "soooo": 5686,
      "actor": 5687,
      "China": 5688,
      "ager": 5689,
      "commit": 5690,
      "Yesterday": 5691,
      "High": 5692,
      "Jeniffer": 5693,
      "Robbie": 5694,
      "showed": 5695,
      "inviting": 5696,
      "dying": 5697,
      "custo": 5698,
      "cooked": 5699,
      "tests": 5700,
      "Jonah": 5701,
      "modern": 5702,
      "radio": 5703,
      "😂😂😂": 5704,
      "congrats": 5705,
      "Eleon": 5706,
      "score": 5707,
      "crowded": 5708,
      "possibly": 5709,
      "festival": 5710,
      "emotion": 5711,
      "voted": 5712,
      "34": 5713,
      "Ari": 5714,
      "Bir": 5715,
      "Bra": 5716,
      "Fant": 5717,
      "Fern": 5718,
      "Gus": 5719,
      "PC": 5720,
      "Ped": 5721,
      "Ree": 5722,
      "Sav": 5723,
      "Selma": 5724,
      "Tot": 5725,
      "Ya": 5726,
      "bn": 5727,
      "gam": 5728,
      "nia": 5729,
      "natural": 5730,
      "spre": 5731,
      "tal": 5732,
      "zed": 5733,
      "incred": 5734,
      "relie": 5735,
      "enger": 5736,
      "stant": 5737,
      "nov": 5738,
      "gosh": 5739,
      "river": 5740,
      "tight": 5741,
      "cancer": 5742,
      "suff": 5743,
      "Marshall": 5744,
      "motiv": 5745,
      "ender": 5746,
      "peace": 5747,
      "olf": 5748,
      "except": 5749,
      "Alvin": 5750,
      "friendly": 5751,
      "rences": 5752,
      "Need": 5753,
      "compan": 5754,
      "countries": 5755,
      "leaves": 5756,
      "setting": 5757,
      "iko": 5758,
      "Allan": 5759,
      "surprising": 5760,
      "supervis": 5761,
      "Germany": 5762,
      "promises": 5763,
      "spoke": 5764,
      "Spencer": 5765,
      "Raymond": 5766,
      "Bryce": 5767,
      "Papa": 5768,
      "episodes": 5769,
      "Lucia": 5770,
      "connection": 5771,
      "Octa": 5772,
      "chapter": 5773,
      "involved": 5774,
      "hemian": 5775,
      "Instagram": 5776,
      "Deborah": 5777,
      "Hazel": 5778,
      "invoice": 5779,
      "Ara": 5780,
      "CV": 5781,
      "Casey": 5782,
      "Hah": 5783,
      "Lana": 5784,
      "Mak": 5785,
      "Ob": 5786,
      "Row": 5787,
      "Won": 5788,
      "Wyatt": 5789,
      "bly": 5790,
      "cris": 5791,
      "cise": 5792,
      "fus": 5793,
      "pills": 5794,
      "si": 5795,
      "six": 5796,
      "invest": 5797,
      "ari": 5798,
      "youtube": 5799,
      "icity": 5800,
      "sofa": 5801,
      "seat": 5802,
      "okes": 5803,
      "tific": 5804,
      "author": 5805,
      "major": 5806,
      "owner": 5807,
      "Alba": 5808,
      "Lucky": 5809,
      "parts": 5810,
      "Bring": 5811,
      "couch": 5812,
      "Michal": 5813,
      "jobs": 5814,
      "gling": 5815,
      "cape": 5816,
      "tens": 5817,
      "Again": 5818,
      "skip": 5819,
      "numbers": 5820,
      "ugal": 5821,
      "suggested": 5822,
      "Damon": 5823,
      "solve": 5824,
      "bastard": 5825,
      "Jeanette": 5826,
      "Gotta": 5827,
      "lawyer": 5828,
      "entertain": 5829,
      "bottles": 5830,
      "purpose": 5831,
      "America": 5832,
      "Chase": 5833,
      "truly": 5834,
      "Wesley": 5835,
      "colleagues": 5836,
      "claims": 5837,
      "original": 5838,
      "smell": 5839,
      "survive": 5840,
      "Phillip": 5841,
      "Grayson": 5842,
      "volunte": 5843,
      "Arabella": 5844,
      "Dust": 5845,
      "Dina": 5846,
      "Dub": 5847,
      "GO": 5848,
      "Kee": 5849,
      "Old": 5850,
      "Yas": 5851,
      "bin": 5852,
      "dated": 5853,
      "nuts": 5854,
      "oth": 5855,
      "okey": 5856,
      "rub": 5857,
      "srsly": 5858,
      "ured": 5859,
      "ville": 5860,
      "ordon": 5861,
      "encou": 5862,
      "soft": 5863,
      "audi": 5864,
      "plants": 5865,
      "comments": 5866,
      "presid": 5867,
      "ures": 5868,
      "quel": 5869,
      "carry": 5870,
      "2019": 5871,
      "arriving": 5872,
      "Mollie": 5873,
      "Ashton": 5874,
      "creep": 5875,
      "Book": 5876,
      "smaller": 5877,
      "lugg": 5878,
      "Uncle": 5879,
      "Serge": 5880,
      "fishing": 5881,
      "Marcin": 5882,
      "generally": 5883,
      "animals": 5884,
      "xoxo": 5885,
      "Felicity": 5886,
      "vegetables": 5887,
      "bullshit": 5888,
      "camera": 5889,
      "Ariana": 5890,
      "dessert": 5891,
      "Pedro": 5892,
      "Du": 5893,
      "Dis": 5894,
      "Erick": 5895,
      "SO": 5896,
      "Say": 5897,
      "Spe": 5898,
      "Wish": 5899,
      "loud": 5900,
      "panc": 5901,
      "rit": 5902,
      "ray": 5903,
      "tic": 5904,
      "influ": 5905,
      "refe": 5906,
      "onto": 5907,
      "oned": 5908,
      "ington": 5909,
      "asc": 5910,
      "lim": 5911,
      "aches": 5912,
      "lock": 5913,
      "abroad": 5914,
      "iland": 5915,
      "backpack": 5916,
      "epend": 5917,
      "spa": 5918,
      "Robyn": 5919,
      "Loren": 5920,
      "Lottie": 5921,
      "players": 5922,
      "Olive": 5923,
      "Rebe": 5924,
      "xxxx": 5925,
      "Michaela": 5926,
      "fami": 5927,
      "Clair": 5928,
      "Maddy": 5929,
      "Madeline": 5930,
      "ooooo": 5931,
      "killing": 5932,
      "Hmmm": 5933,
      "freak": 5934,
      "Thai": 5935,
      "Thailand": 5936,
      "maths": 5937,
      "argument": 5938,
      "October": 5939,
      "snacks": 5940,
      "Starbucks": 5941,
      "Jacqueline": 5942,
      "destroyed": 5943,
      "Google": 5944,
      "Savannah": 5945,
      "Dustin": 5946,
      "!?": 5947,
      "Cat": 5948,
      "Din": 5949,
      "EC": 5950,
      "Lill": 5951,
      "Str": 5952,
      "TF": 5953,
      "Tory": 5954,
      "Work": 5955,
      "bby": 5956,
      "gather": 5957,
      "km": 5958,
      "pure": 5959,
      "pants": 5960,
      "sl": 5961,
      "tro": 5962,
      "wan": 5963,
      "inc": 5964,
      "rell": 5965,
      "onse": 5966,
      "stre": 5967,
      "escape": 5968,
      "role": 5969,
      "arek": 5970,
      "advent": 5971,
      "iram": 5972,
      "irts": 5973,
      "Marsha": 5974,
      "Marcel": 5975,
      "Marlene": 5976,
      "theres": 5977,
      "sake": 5978,
      "tasty": 5979,
      "moro": 5980,
      "asts": 5981,
      "Emil": 5982,
      "ized": 5983,
      "Adrien": 5984,
      "clan": 5985,
      "Island": 5986,
      "Laurie": 5987,
      "showing": 5988,
      "menu": 5989,
      "Katia": 5990,
      "Dale": 5991,
      "painting": 5992,
      "Bohemian": 5993,
      "Juliette": 5994,
      "Nathaniel": 5995,
      "chall": 5996,
      "calend": 5997,
      "nearly": 5998,
      "charger": 5999,
      "logist": 6000,
      "answering": 6001,
      "sunny": 6002,
      "Aida": 6003,
      "Esther": 6004,
      "NOW": 6005,
      "Alfie": 6006,
      "falling": 6007,
      "starving": 6008,
      "slowly": 6009,
      "Tania": 6010,
      "Alyssa": 6011,
      "promotion": 6012,
      "smoke": 6013,
      "character": 6014,
      "Pablo": 6015,
      "sandw": 6016,
      "christmas": 6017,
      "bnb": 6018,
      "luggage": 6019,
      "'.": 6020,
      "Bes": 6021,
      "Big": 6022,
      "Dep": 6023,
      "Gise": 6024,
      "Hiram": 6025,
      "Iss": 6026,
      "Kane": 6027,
      "Land": 6028,
      "Nia": 6029,
      "Raul": 6030,
      "Sir": 6031,
      "Ugh": 6032,
      "__": 6033,
      "ahaha": 6034,
      "brow": 6035,
      "kin": 6036,
      "kne": 6037,
      "mr": 6038,
      "pi": 6039,
      "pus": 6040,
      "vable": 6041,
      "recover": 6042,
      "mel": 6043,
      "envy": 6044,
      "besides": 6045,
      "sody": 6046,
      "semin": 6047,
      "loss": 6048,
      "cock": 6049,
      "nowadays": 6050,
      "suck": 6051,
      "hers": 6052,
      "sharing": 6053,
      "raine": 6054,
      "ups": 6055,
      "saved": 6056,
      "probs": 6057,
      "compare": 6058,
      "consul": 6059,
      "Thought": 6060,
      "bles": 6061,
      "hadn": 6062,
      "Bray": 6063,
      "applic": 6064,
      "printer": 6065,
      "blank": 6066,
      "hardly": 6067,
      "Damien": 6068,
      "decides": 6069,
      "netflix": 6070,
      "transl": 6071,
      "films": 6072,
      "boarding": 6073,
      "based": 6074,
      "yyyy": 6075,
      "sung": 6076,
      "scheduled": 6077,
      "characters": 6078,
      "material": 6079,
      "Drake": 6080,
      "Otherwise": 6081,
      "grateful": 6082,
      "Fantastic": 6083,
      "2moro": 6084,
      "Afr": 6085,
      "Jad": 6086,
      "Kent": 6087,
      "Lis": 6088,
      "Muse": 6089,
      "Tonia": 6090,
      "bul": 6091,
      "border": 6092,
      "dare": 6093,
      "ey": 6094,
      "jer": 6095,
      "piano": 6096,
      "tti": 6097,
      "tasks": 6098,
      "thin": 6099,
      "inating": 6100,
      "sta": 6101,
      "hamm": 6102,
      "wild": 6103,
      "ids": 6104,
      "sometime": 6105,
      "pei": 6106,
      "master": 6107,
      "Their": 6108,
      "provid": 6109,
      "wasted": 6110,
      "Jacky": 6111,
      "Beverly": 6112,
      "Declan": 6113,
      "Benny": 6114,
      "player": 6115,
      "Hahahaha": 6116,
      "Stu": 6117,
      "300": 6118,
      "downtown": 6119,
      "Neva": 6120,
      "earn": 6121,
      "Barcel": 6122,
      "Helmut": 6123,
      "freezing": 6124,
      "Moira": 6125,
      "tiny": 6126,
      "ierra": 6127,
      "ances": 6128,
      "sweets": 6129,
      "understanding": 6130,
      "Suzy": 6131,
      "Richie": 6132,
      "parcel": 6133,
      "Karina": 6134,
      "cleaner": 6135,
      "Finally": 6136,
      "considers": 6137,
      "reasonable": 6138,
      "experien": 6139,
      "confirmed": 6140,
      "Quinn": 6141,
      "refuses": 6142,
      "Francesca": 6143,
      "documents": 6144,
      "memories": 6145,
      "Sharpei": 6146,
      "grocery": 6147,
      "Portugal": 6148,
      "million": 6149,
      "Libby": 6150,
      "Nigel": 6151,
      "customer": 6152,
      "Lorenzo": 6153,
      "Africa": 6154,
      "Barcelona": 6155,
      "4th": 6156,
      "=)": 6157,
      "Ear": 6158,
      "East": 6159,
      "Eug": 6160,
      "FB": 6161,
      "Gal": 6162,
      "Green": 6163,
      "ME": 6164,
      "Sur": 6165,
      "Watch": 6166,
      "dies": 6167,
      "fasc": 6168,
      "ilo": 6169,
      "mary": 6170,
      "square": 6171,
      "vil": 6172,
      "xmas": 6173,
      "zon": 6174,
      "anti": 6175,
      "rend": 6176,
      "mechan": 6177,
      "itself": 6178,
      "became": 6179,
      "lived": 6180,
      "aco": 6181,
      "robe": 6182,
      "loose": 6183,
      "nasty": 6184,
      "yellow": 6185,
      "tag": 6186,
      "deep": 6187,
      "delive": 6188,
      "progress": 6189,
      "exha": 6190,
      "itect": 6191,
      "trash": 6192,
      "whom": 6193,
      "Hiya": 6194,
      "Before": 6195,
      "lley": 6196,
      "hip": 6197,
      "meaning": 6198,
      "Neville": 6199,
      "Arnie": 6200,
      "Dorian": 6201,
      "resign": 6202,
      "haircut": 6203,
      "Karin": 6204,
      "packing": 6205,
      "champ": 6206,
      "Mummy": 6207,
      "march": 6208,
      "becue": 6209,
      "sorted": 6210,
      "hmmm": 6211,
      "pieces": 6212,
      "Debra": 6213,
      "neighbourhood": 6214,
      "created": 6215,
      "proposed": 6216,
      "Babe": 6217,
      "Grandma": 6218,
      "temper": 6219,
      "battery": 6220,
      "Basically": 6221,
      "deserve": 6222,
      "scription": 6223,
      "Lukas": 6224,
      "depressed": 6225,
      "continue": 6226,
      "released": 6227,
      "potatoes": 6228,
      "directly": 6229,
      "Randall": 6230,
      "reschedule": 6231,
      "communic": 6232,
      "Skype": 6233,
      "Totally": 6234,
      "Keegan": 6235,
      "delivered": 6236,
      "23": 6237,
      "Btw": 6238,
      "Bang": 6239,
      "Croat": 6240,
      "Dirk": 6241,
      "Game": 6242,
      "Hur": 6243,
      "Lat": 6244,
      "Mack": 6245,
      "Sy": 6246,
      "Show": 6247,
      "THAT": 6248,
      "ao": 6249,
      "oven": 6250,
      "rn": 6251,
      "race": 6252,
      "rum": 6253,
      "sour": 6254,
      "tab": 6255,
      "argue": 6256,
      "stunning": 6257,
      "ander": 6258,
      "alo": 6259,
      "abor": 6260,
      "outfit": 6261,
      "tiring": 6262,
      "Mari": 6263,
      "terms": 6264,
      "endid": 6265,
      "nav": 6266,
      "rail": 6267,
      "proof": 6268,
      "aga": 6269,
      "express": 6270,
      "West": 6271,
      "pretend": 6272,
      "ctic": 6273,
      "berry": 6274,
      "Carlie": 6275,
      "asshole": 6276,
      "Thats": 6277,
      "ersto": 6278,
      "Jennie": 6279,
      "drama": 6280,
      "Artur": 6281,
      "Elliot": 6282,
      "skills": 6283,
      "texts": 6284,
      "Const": 6285,
      "Nicolas": 6286,
      "Ernest": 6287,
      "realised": 6288,
      "collection": 6289,
      "recipes": 6290,
      "charity": 6291,
      "discussing": 6292,
      "hurts": 6293,
      "Prof": 6294,
      "respond": 6295,
      "OOOO": 6296,
      "swim": 6297,
      "ilarious": 6298,
      "cuz": 6299,
      "effort": 6300,
      "gradu": 6301,
      "responsib": 6302,
      "concerned": 6303,
      "niture": 6304,
      "suddenly": 6305,
      "Valentine": 6306,
      "develop": 6307,
      "Besides": 6308,
      "33": 6309,
      "AR": 6310,
      "Aun": 6311,
      "BC": 6312,
      "Cin": 6313,
      "Edith": 6314,
      "Fay": 6315,
      "Gia": 6316,
      "Geez": 6317,
      "Ill": 6318,
      "OF": 6319,
      "Prest": 6320,
      "Ve": 6321,
      "XX": 6322,
      "cig": 6323,
      "fra": 6324,
      "mouth": 6325,
      "nal": 6326,
      "ners": 6327,
      "rings": 6328,
      "tat": 6329,
      "tter": 6330,
      "wers": 6331,
      "inary": 6332,
      "renov": 6333,
      "atic": 6334,
      "arian": 6335,
      "noise": 6336,
      "bey": 6337,
      "goti": 6338,
      "ador": 6339,
      "tim": 6340,
      "sund": 6341,
      "Margot": 6342,
      "Marvin": 6343,
      "Mariah": 6344,
      "iao": 6345,
      "Jojo": 6346,
      "whis": 6347,
      "shel": 6348,
      "sheet": 6349,
      "workers": 6350,
      "bless": 6351,
      "Cara": 6352,
      "quiz": 6353,
      "Hilda": 6354,
      "undred": 6355,
      "vision": 6356,
      "path": 6357,
      "tries": 6358,
      "supper": 6359,
      "Agata": 6360,
      "smoking": 6361,
      "Elise": 6362,
      "breaking": 6363,
      "solution": 6364,
      "chase": 6365,
      "burger": 6366,
      "Celia": 6367,
      "arrang": 6368,
      "Ahmed": 6369,
      "NOT": 6370,
      "dreams": 6371,
      "engaged": 6372,
      "effect": 6373,
      "Amazon": 6374,
      "booze": 6375,
      "smooth": 6376,
      "delete": 6377,
      "furniture": 6378,
      "chips": 6379,
      "Misty": 6380,
      "cruise": 6381,
      "ALLY": 6382,
      "Nestor": 6383,
      "regarding": 6384,
      "Preston": 6385,
      "4pm": 6386,
      "?!!": 6387,
      "Bat": 6388,
      "Brianna": 6389,
      "Bunny": 6390,
      "CU": 6391,
      "FI": 6392,
      "Gordon": 6393,
      "Honest": 6394,
      "Kirk": 6395,
      "Lar": 6396,
      "Lit": 6397,
      "Must": 6398,
      "Rh": 6399,
      "Sven": 6400,
      "Uber": 6401,
      "Wha": 6402,
      "Wolf": 6403,
      "WTF": 6404,
      "grown": 6405,
      "jokes": 6406,
      "mally": 6407,
      "mass": 6408,
      "miles": 6409,
      "thursday": 6410,
      "ani": 6411,
      "ania": 6412,
      "attr": 6413,
      "hesit": 6414,
      "assume": 6415,
      "ldon": 6416,
      "dom": 6417,
      "usz": 6418,
      "likely": 6419,
      "entin": 6420,
      "ourselves": 6421,
      "Head": 6422,
      "exper": 6423,
      "typical": 6424,
      "phne": 6425,
      "Dest": 6426,
      "annie": 6427,
      "Shona": 6428,
      "renting": 6429,
      "Home": 6430,
      "tennis": 6431,
      "dressed": 6432,
      "Claris": 6433,
      "ordering": 6434,
      "Daphne": 6435,
      "agreement": 6436,
      "reality": 6437,
      "cleaned": 6438,
      "restaurants": 6439,
      "emails": 6440,
      "matters": 6441,
      "Blue": 6442,
      "hanging": 6443,
      "sexy": 6444,
      "Doesn": 6445,
      "result": 6446,
      "advise": 6447,
      "European": 6448,
      "impression": 6449,
      "congratul": 6450,
      "colours": 6451,
      "election": 6452,
      "Russian": 6453,
      "Ramona": 6454,
      "exercises": 6455,
      "Terrence": 6456,
      "reckons": 6457,
      "Brigit": 6458,
      "hangover": 6459,
      "phew": 6460,
      "spread": 6461,
      "Depends": 6462,
      "Clarisse": 6463,
      "Brigitte": 6464,
      "1pm": 6465,
      ":>": 6466,
      "Av": 6467,
      "FU": 6468,
      "Gio": 6469,
      "Kurt": 6470,
      "Lars": 6471,
      "Life": 6472,
      "PL": 6473,
      "Tri": 6474,
      "dump": 6475,
      "glo": 6476,
      "mac": 6477,
      "mur": 6478,
      "tar": 6479,
      "yay": 6480,
      "rehear": 6481,
      "isher": 6482,
      "ishes": 6483,
      "heat": 6484,
      "heating": 6485,
      "andez": 6486,
      "belle": 6487,
      "aside": 6488,
      "edu": 6489,
      "sore": 6490,
      "west": 6491,
      "rot": 6492,
      "neck": 6493,
      "negoti": 6494,
      "coach": 6495,
      "abo": 6496,
      "verse": 6497,
      "hero": 6498,
      "named": 6499,
      "rak": 6500,
      "These": 6501,
      "shes": 6502,
      "plat": 6503,
      "ceed": 6504,
      "prote": 6505,
      "ilt": 6506,
      "agger": 6507,
      "pock": 6508,
      "ousand": 6509,
      "phy": 6510,
      "spam": 6511,
      "Janek": 6512,
      "answers": 6513,
      "Coco": 6514,
      "useless": 6515,
      "Anyways": 6516,
      "ilde": 6517,
      "tenti": 6518,
      "studio": 6519,
      "explo": 6520,
      "believable": 6521,
      "organising": 6522,
      "bedroom": 6523,
      "Hahah": 6524,
      "Darrell": 6525,
      "formal": 6526,
      "Kenny": 6527,
      "Gerard": 6528,
      "burg": 6529,
      "Cele": 6530,
      "stressful": 6531,
      "legs": 6532,
      "Raquel": 6533,
      "snowing": 6534,
      "Wilma": 6535,
      "Fabian": 6536,
      "reviews": 6537,
      "groceries": 6538,
      "official": 6539,
      "frustrated": 6540,
      "postpone": 6541,
      "Maurice": 6542,
      "central": 6543,
      "judge": 6544,
      "Sadie": 6545,
      "require": 6546,
      "incredible": 6547,
      "Dublin": 6548,
      "president": 6549,
      "calendar": 6550,
      "Croatia": 6551,
      "erstood": 6552,
      "sunday": 6553,
      "Honestly": 6554,
      "Destiny": 6555,
      "//": 6556,
      "Ariel": 6557,
      "City": 6558,
      "Count": 6559,
      "Dun": 6560,
      "ET": 6561,
      "Gerry": 6562,
      "II": 6563,
      "IK": 6564,
      "Ker": 6565,
      "Kind": 6566,
      "Mig": 6567,
      "Ryl": 6568,
      "Rhon": 6569,
      "\\\\": 6570,
      "dd": 6571,
      "hilarious": 6572,
      "hundred": 6573,
      "kok": 6574,
      "mb": 6575,
      "plast": 6576,
      "plot": 6577,
      "sla": 6578,
      "vouch": 6579,
      "ano": 6580,
      "tori": 6581,
      "mester": 6582,
      "meals": 6583,
      "itz": 6584,
      "itude": 6585,
      "novel": 6586,
      "web": 6587,
      "weed": 6588,
      "usted": 6589,
      "Marla": 6590,
      "ented": 6591,
      "ols": 6592,
      "provide": 6593,
      "exagger": 6594,
      "comfy": 6595,
      "mul": 6596,
      "cheated": 6597,
      "cheating": 6598,
      "assist": 6599,
      "pharm": 6600,
      "spring": 6601,
      "watches": 6602,
      "Doreen": 6603,
      "Matilde": 6604,
      "stock": 6605,
      "Lois": 6606,
      "Geoff": 6607,
      ":(((": 6608,
      "members": 6609,
      "weekends": 6610,
      "cares": 6611,
      "choosing": 6612,
      "Barbie": 6613,
      "recommendation": 6614,
      "!!!!!!": 6615,
      "posts": 6616,
      "faster": 6617,
      "Julianna": 6618,
      "Geri": 6619,
      "blog": 6620,
      "oooooooo": 6621,
      "Perhaps": 6622,
      "grandmother": 6623,
      "bags": 6624,
      "messenger": 6625,
      "warming": 6626,
      "annoyed": 6627,
      "remem": 6628,
      "capital": 6629,
      "Coming": 6630,
      "memory": 6631,
      "decorations": 6632,
      "Tabby": 6633,
      "tomatoes": 6634,
      "techn": 6635,
      "Dexter": 6636,
      "divorce": 6637,
      "activities": 6638,
      "slightly": 6639,
      "creepy": 6640,
      "Issac": 6641,
      "Rhonda": 6642,
      "55": 6643,
      "5pm": 6644,
      ":×": 6645,
      "Ano": 6646,
      "Centr": 6647,
      "Del": 6648,
      "HO": 6649,
      "Lona": 6650,
      "Pas": 6651,
      "Pra": 6652,
      "Pizza": 6653,
      "bene": 6654,
      "flies": 6655,
      "ials": 6656,
      "ket": 6657,
      "lack": 6658,
      "psody": 6659,
      "sink": 6660,
      "ury": 6661,
      "vic": 6662,
      "inspir": 6663,
      "remo": 6664,
      "repe": 6665,
      "eria": 6666,
      "enzie": 6667,
      "hapsody": 6668,
      "soc": 6669,
      "semester": 6670,
      "weak": 6671,
      "coz": 6672,
      "iron": 6673,
      "irsty": 6674,
      "inkill": 6675,
      "independ": 6676,
      "deleted": 6677,
      "ilities": 6678,
      "ague": 6679,
      "forest": 6680,
      "Luisa": 6681,
      "igning": 6682,
      "Johny": 6683,
      "scen": 6684,
      "aint": 6685,
      "Samsung": 6686,
      "grade": 6687,
      "Beau": 6688,
      "Road": 6689,
      "Gosh": 6690,
      "Meet": 6691,
      "understood": 6692,
      "mistakes": 6693,
      "stops": 6694,
      "forecast": 6695,
      "partying": 6696,
      "Haley": 6697,
      "painkill": 6698,
      "awww": 6699,
      "Maxine": 6700,
      "studied": 6701,
      "smile": 6702,
      "Potter": 6703,
      "uggling": 6704,
      "Madrid": 6705,
      "fired": 6706,
      "Cambridge": 6707,
      "painful": 6708,
      "Boj": 6709,
      "barbecue": 6710,
      "Brody": 6711,
      "polish": 6712,
      "HAN": 6713,
      "blocked": 6714,
      "daily": 6715,
      "marks": 6716,
      "logical": 6717,
      "curity": 6718,
      "Walt": 6719,
      "basic": 6720,
      "viol": 6721,
      "ledge": 6722,
      "pleased": 6723,
      "architect": 6724,
      "osite": 6725,
      "Quentin": 6726,
      "value": 6727,
      "refused": 6728,
      "opposite": 6729,
      "creative": 6730,
      "propose": 6731,
      "further": 6732,
      "description": 6733,
      "including": 6734,
      "large": 6735,
      "introduce": 6736,
      "Cecil": 6737,
      "kisses": 6738,
      "sightseeing": 6739,
      "allergic": 6740,
      "Lillian": 6741,
      "rendum": 6742,
      "expert": 6743,
      "21st": 6744,
      "500": 6745,
      "Bur": 6746,
      "Bud": 6747,
      "Cer": 6748,
      "EN": 6749,
      "Ev": 6750,
      "Ewa": 6751,
      "EVER": 6752,
      "Jada": 6753,
      "Miss": 6754,
      "Tinder": 6755,
      "Yvon": 6756,
      "ec": 6757,
      "fif": 6758,
      "nick": 6759,
      "rones": 6760,
      "ube": 6761,
      "yr": 6762,
      "thousand": 6763,
      "inju": 6764,
      "reaction": 6765,
      "sters": 6766,
      "bered": 6767,
      "security": 6768,
      "etta": 6769,
      "lid": 6770,
      "advert": 6771,
      "image": 6772,
      "ryn": 6773,
      "knowledge": 6774,
      "moon": 6775,
      "upstairs": 6776,
      "tage": 6777,
      "excellent": 6778,
      "perfu": 6779,
      "muff": 6780,
      "Already": 6781,
      "Although": 6782,
      "Sheldon": 6783,
      "quid": 6784,
      "Beck": 6785,
      "click": 6786,
      "bits": 6787,
      "stomach": 6788,
      "coun": 6789,
      "Dec": 6790,
      "drank": 6791,
      "drug": 6792,
      "biggest": 6793,
      "choices": 6794,
      "onya": 6795,
      "misses": 6796,
      "Thom": 6797,
      "Cali": 6798,
      "fortune": 6799,
      "views": 6800,
      "block": 6801,
      "highly": 6802,
      "salary": 6803,
      "hotels": 6804,
      "Everybody": 6805,
      "learned": 6806,
      "celebrating": 6807,
      "babes": 6808,
      "returned": 6809,
      "confident": 6810,
      "hitting": 6811,
      "following": 6812,
      "allowed": 6813,
      "ginger": 6814,
      "exercise": 6815,
      "culture": 6816,
      "AND": 6817,
      "Kathryn": 6818,
      "Karolina": 6819,
      "adult": 6820,
      "Stefano": 6821,
      "behaviour": 6822,
      "Luckily": 6823,
      "sauce": 6824,
      "Braz": 6825,
      "pancakes": 6826,
      "referendum": 6827,
      "translation": 6828,
      "Lisbon": 6829,
      "Bangkok": 6830,
      "Miguel": 6831,
      "Another": 6832,
      ")(": 6833,
      "29": 6834,
      "AL": 6835,
      "ARE": 6836,
      "Bus": 6837,
      "CK": 6838,
      "Cre": 6839,
      "Done": 6840,
      "Hob": 6841,
      "Ike": 6842,
      "Ou": 6843,
      "Por": 6844,
      "Piet": 6845,
      "Rhapsody": 6846,
      "TO": 6847,
      "Vir": 6848,
      "aver": 6849,
      "aven": 6850,
      "fans": 6851,
      "ito": 6852,
      "ija": 6853,
      "lone": 6854,
      "mme": 6855,
      "oting": 6856,
      "rate": 6857,
      "sin": 6858,
      "uction": 6859,
      "wet": 6860,
      "😊😊": 6861,
      "ining": 6862,
      "measure": 6863,
      "sting": 6864,
      "soo": 6865,
      "keen": 6866,
      "nelia": 6867,
      "imi": 6868,
      "imp": 6869,
      "iran": 6870,
      "ify": 6871,
      "shirts": 6872,
      "raise": 6873,
      "gees": 6874,
      "Anny": 6875,
      "plumber": 6876,
      "deals": 6877,
      "deposit": 6878,
      "exact": 6879,
      "constant": 6880,
      "permission": 6881,
      "precise": 6882,
      "berto": 6883,
      "acting": 6884,
      "Chrissy": 6885,
      "assy": 6886,
      "ouses": 6887,
      "happiness": 6888,
      "spoken": 6889,
      "tons": 6890,
      "Janine": 6891,
      "clue": 6892,
      "shots": 6893,
      "stole": 6894,
      "twins": 6895,
      "hiking": 6896,
      "1000": 6897,
      "Malia": 6898,
      "inten": 6899,
      "chosen": 6900,
      "Nicki": 6901,
      "20th": 6902,
      "closing": 6903,
      "explains": 6904,
      "15th": 6905,
      "scarf": 6906,
      "attitude": 6907,
      "Once": 6908,
      "crack": 6909,
      "corn": 6910,
      "boxes": 6911,
      "Cornelia": 6912,
      "Raoul": 6913,
      "garlic": 6914,
      "Hubert": 6915,
      "gentle": 6916,
      "sels": 6917,
      "India": 6918,
      "impressive": 6919,
      "castle": 6920,
      "Beatrix": 6921,
      "ships": 6922,
      "Lawrie": 6923,
      "campus": 6924,
      "Fabio": 6925,
      "notebook": 6926,
      "allows": 6927,
      "describe": 6928,
      "Maureen": 6929,
      "included": 6930,
      "Yannick": 6931,
      "employe": 6932,
      "Clarice": 6933,
      "apest": 6934,
      "BTW": 6935,
      "IKEA": 6936,
      "2pm": 6937,
      "Bay": 6938,
      "HR": 6939,
      "Hard": 6940,
      "Iv": 6941,
      "Jer": 6942,
      "Lero": 6943,
      "Mit": 6944,
      "Off": 6945,
      "Ooo": 6946,
      "Pen": 6947,
      "Sash": 6948,
      "Sierra": 6949,
      "Tome": 6950,
      "WOW": 6951,
      "Zu": 6952,
      "cum": 6953,
      "cough": 6954,
      "dal": 6955,
      "ders": 6956,
      "gal": 6957,
      "gloves": 6958,
      "ior": 6959,
      "lab": 6960,
      "nur": 6961,
      "oma": 6962,
      "pite": 6963,
      "wave": 6964,
      "xpect": 6965,
      "stic": 6966,
      "stri": 6967,
      "leine": 6968,
      "section": 6969,
      "separ": 6970,
      "however": 6971,
      "roof": 6972,
      "idy": 6973,
      "idence": 6974,
      "coast": 6975,
      "motor": 6976,
      "thern": 6977,
      "Joona": 6978,
      "plac": 6979,
      "defin": 6980,
      "wayne": 6981,
      "agency": 6982,
      "Were": 6983,
      "Tomas": 6984,
      "redith": 6985,
      "ulous": 6986,
      "science": 6987,
      "mental": 6988,
      "telle": 6989,
      "Best": 6990,
      "aks": 6991,
      "Keiran": 6992,
      "Leigh": 6993,
      "finishes": 6994,
      "uben": 6995,
      "stays": 6996,
      "Stay": 6997,
      "Anybody": 6998,
      "Henri": 6999,
      "Magdal": 7000,
      "Zoey": 7001,
      "Feel": 7002,
      "speaks": 7003,
      "burgers": 7004,
      "receip": 7005,
      "Jasna": 7006,
      "reasons": 7007,
      "shortly": 7008,
      "marriage": 7009,
      "Skye": 7010,
      "Corin": 7011,
      "Meryl": 7012,
      "attending": 7013,
      "fantasy": 7014,
      "connected": 7015,
      "Macie": 7016,
      "Russia": 7017,
      "Milan": 7018,
      "devast": 7019,
      "distance": 7020,
      "apologize": 7021,
      "Ciara": 7022,
      "adults": 7023,
      "Nelson": 7024,
      "Rafa": 7025,
      "convenient": 7026,
      "basketball": 7027,
      "knee": 7028,
      "Brayden": 7029,
      "Museum": 7030,
      "temperature": 7031,
      "remembered": 7032,
      "Leroy": 7033,
      "Tomek": 7034,
      ")/": 7035,
      "27": 7036,
      ">,": 7037,
      "Dwayne": 7038,
      "Ema": 7039,
      "Gib": 7040,
      "Javier": 7041,
      "Part": 7042,
      "Res": 7043,
      "Rly": 7044,
      "Trey": 7045,
      "Wel": 7046,
      "Wash": 7047,
      "bb": 7048,
      "east": 7049,
      "fli": 7050,
      "hide": 7051,
      "ients": 7052,
      "lent": 7053,
      "thon": 7054,
      "inic": 7055,
      "theme": 7056,
      "ingred": 7057,
      "held": 7058,
      "hetti": 7059,
      "stone": 7060,
      "ict": 7061,
      "sees": 7062,
      "loo": 7063,
      "losing": 7064,
      "adette": 7065,
      "ods": 7066,
      "knowing": 7067,
      "Margo": 7068,
      "Marly": 7069,
      "ahh": 7070,
      "mogen": 7071,
      "Josie": 7072,
      "fee": 7073,
      "female": 7074,
      "geez": 7075,
      "updated": 7076,
      "maps": 7077,
      "aghetti": 7078,
      "moron": 7079,
      "cons": 7080,
      "constru": 7081,
      "predic": 7082,
      "Samara": 7083,
      "quin": 7084,
      "monday": 7085,
      "Mattie": 7086,
      "Gold": 7087,
      "Meredith": 7088,
      "Thanksgiving": 7089,
      "babies": 7090,
      "Interest": 7091,
      "Arlo": 7092,
      "Tracey": 7093,
      "......": 7094,
      "sitive": 7095,
      "blon": 7096,
      "blind": 7097,
      "meds": 7098,
      "Kaja": 7099,
      "12th": 7100,
      "higher": 7101,
      "additional": 7102,
      "spoil": 7103,
      "translat": 7104,
      "translate": 7105,
      "damage": 7106,
      "Ireland": 7107,
      "Waiting": 7108,
      "suitcase": 7109,
      "eeeeeeee": 7110,
      "fighting": 7111,
      "Tanner": 7112,
      "Wood": 7113,
      "clearly": 7114,
      "pull": 7115,
      "NYC": 7116,
      "reckon": 7117,
      "rolls": 7118,
      "medicine": 7119,
      "Lukass": 7120,
      "baked": 7121,
      "Bernadette": 7122,
      "therapy": 7123,
      "costume": 7124,
      "sample": 7125,
      "village": 7126,
      "traditional": 7127,
      "Madeleine": 7128,
      "yummy": 7129,
      "supervisor": 7130,
      "seminar": 7131,
      "application": 7132,
      "hammad": 7133,
      "Nevaeh": 7134,
      "fascinating": 7135,
      "Cinthia": 7136,
      "arranged": 7137,
      "platform": 7138,
      "soccer": 7139,
      "painkillers": 7140,
      "Virgin": 7141,
      "xpected": 7142,
      "Bal": 7143,
      "Buy": 7144,
      "Crac": 7145,
      "Ehh": 7146,
      "Fat": 7147,
      "Hold": 7148,
      "Ive": 7149,
      "Imogen": 7150,
      "Ja": 7151,
      "Ki": 7152,
      "Kirst": 7153,
      "LA": 7154,
      "Many": 7155,
      "National": 7156,
      "Oleg": 7157,
      "Pink": 7158,
      "SH": 7159,
      "Sto": 7160,
      "Sry": 7161,
      "Till": 7162,
      "cit": 7163,
      "cles": 7164,
      "ease": 7165,
      "lord": 7166,
      "nam": 7167,
      "oil": 7168,
      "sry": 7169,
      "south": 7170,
      "yah": 7171,
      "🤣🤣": 7172,
      "throat": 7173,
      "reserve": 7174,
      "mek": 7175,
      "aran": 7176,
      "stream": 7177,
      "becoming": 7178,
      "acho": 7179,
      "acade": 7180,
      "altern": 7181,
      "ril": 7182,
      "coke": 7183,
      "chip": 7184,
      "charm": 7185,
      "canteen": 7186,
      "teas": 7187,
      "Joce": 7188,
      "shar": 7189,
      "fear": 7190,
      "max": 7191,
      "omer": 7192,
      "unusual": 7193,
      "saus": 7194,
      "sage": 7195,
      "sales": 7196,
      "Nooo": 7197,
      "tail": 7198,
      "Thrones": 7199,
      "pret": 7200,
      "potenti": 7201,
      "doesnt": 7202,
      "talks": 7203,
      "Emman": 7204,
      "Been": 7205,
      "Aleks": 7206,
      "gues": 7207,
      "applied": 7208,
      "twist": 7209,
      "disaster": 7210,
      "Math": 7211,
      "career": 7212,
      "chores": 7213,
      "arrives": 7214,
      "Freda": 7215,
      "custom": 7216,
      "Barbra": 7217,
      "150": 7218,
      "heads": 7219,
      "skirt": 7220,
      "breaks": 7221,
      "otic": 7222,
      "content": 7223,
      "metics": 7224,
      "babysit": 7225,
      "cruel": 7226,
      "salmon": 7227,
      "Warren": 7228,
      "Franco": 7229,
      "Austra": 7230,
      "copies": 7231,
      "roads": 7232,
      "drawer": 7233,
      "flower": 7234,
      "vacu": 7235,
      "Micky": 7236,
      "Antonia": 7237,
      "banana": 7238,
      "panic": 7239,
      "Callum": 7240,
      "confirmation": 7241,
      "Tatum": 7242,
      "fabulous": 7243,
      "informed": 7244,
      "spirit": 7245,
      "various": 7246,
      "blame": 7247,
      "Cathie": 7248,
      "embarrassing": 7249,
      "Paddy": 7250,
      "folks": 7251,
      "Octavia": 7252,
      "plastic": 7253,
      "Central": 7254,
      "Pascal": 7255,
      "Yvonne": 7256,
      "muffins": 7257,
      "Cracow": 7258,
      "Jocelyn": 7259,
      "Emmanuel": 7260,
      "65": 7261,
      "Ary": 7262,
      "Ahh": 7263,
      "CE": 7264,
      "Cast": 7265,
      "Caz": 7266,
      "Curt": 7267,
      "Dick": 7268,
      "Eh": 7269,
      "Fed": 7270,
      "Fisher": 7271,
      "IM": 7272,
      "Kelse": 7273,
      "Kore": 7274,
      "Lina": 7275,
      "Lets": 7276,
      "Lance": 7277,
      "Might": 7278,
      "Ooh": 7279,
      "Snow": 7280,
      "Sol": 7281,
      "Spo": 7282,
      "Sleep": 7283,
      "Tor": 7284,
      "Uk": 7285,
      "Uhm": 7286,
      "french": 7287,
      "fying": 7288,
      "hrs": 7289,
      "kg": 7290,
      "lac": 7291,
      "lma": 7292,
      "np": 7293,
      "ras": 7294,
      "sar": 7295,
      "sne": 7296,
      "soul": 7297,
      "tall": 7298,
      "wra": 7299,
      "whel": 7300,
      "thri": 7301,
      "thus": 7302,
      "tops": 7303,
      "isol": 7304,
      "heels": 7305,
      "ando": 7306,
      "eta": 7307,
      "lila": 7308,
      "force": 7309,
      "neg": 7310,
      "cot": 7311,
      "adding": 7312,
      "among": 7313,
      "nowhere": 7314,
      "oked": 7315,
      "Mart": 7316,
      "laint": 7317,
      "ussels": 7318,
      "cey": 7319,
      "Hehe": 7320,
      "arten": 7321,
      "sss": 7322,
      "commer": 7323,
      "comedy": 7324,
      "poll": 7325,
      "Almost": 7326,
      "igi": 7327,
      "umbre": 7328,
      "scre": 7329,
      "mini": 7330,
      "jogging": 7331,
      "Brussels": 7332,
      "Lots": 7333,
      "Delia": 7334,
      "ohhh": 7335,
      "Micah": 7336,
      "Maja": 7337,
      "brings": 7338,
      "orders": 7339,
      "speed": 7340,
      "glas": 7341,
      "roommate": 7342,
      "shape": 7343,
      "suppor": 7344,
      "dressing": 7345,
      "struggling": 7346,
      "Edna": 7347,
      "sleepy": 7348,
      "headphones": 7349,
      "Bret": 7350,
      "desper": 7351,
      "metal": 7352,
      "enjoys": 7353,
      "Cait": 7354,
      "Darcey": 7355,
      "crush": 7356,
      "ibly": 7357,
      "contacts": 7358,
      "zemek": 7359,
      "England": 7360,
      "USA": 7361,
      "Tammy": 7362,
      "opinions": 7363,
      "patience": 7364,
      "ential": 7365,
      "Priti": 7366,
      "Przemek": 7367,
      "collecting": 7368,
      "organized": 7369,
      "Grandpa": 7370,
      "devil": 7371,
      "Paloma": 7372,
      "distur": 7373,
      "Jacqui": 7374,
      "Kathleen": 7375,
      "skype": 7376,
      "realize": 7377,
      "Awww": 7378,
      "fetch": 7379,
      "announced": 7380,
      "Kelvin": 7381,
      "Kaleigh": 7382,
      "Dakota": 7383,
      "Ulrich": 7384,
      "puppy": 7385,
      "cafet": 7386,
      "families": 7387,
      "Mackenzie": 7388,
      "railway": 7389,
      "Profess": 7390,
      "tattoo": 7391,
      "FIFA": 7392,
      "PLN": 7393,
      "Magdalene": 7394,
      "Kirsten": 7395,
      "Kelsey": 7396,
      "Abe": 7397,
      "Blo": 7398,
      "Bad": 7399,
      "Bris": 7400,
      "Buba": 7401,
      "CH": 7402,
      "Elie": 7403,
      "Far": 7404,
      "Fle": 7405,
      "Hon": 7406,
      "Lang": 7407,
      "Merry": 7408,
      "Pri": 7409,
      "Rio": 7410,
      "Tilda": 7411,
      "UP": 7412,
      "Wade": 7413,
      "Xxx": 7414,
      "bish": 7415,
      "jet": 7416,
      "ker": 7417,
      "kah": 7418,
      "lon": 7419,
      "nab": 7420,
      "rly": 7421,
      "sens": 7422,
      "vs": 7423,
      "wing": 7424,
      "zen": 7425,
      "°)": 7426,
      "＿＿": 7427,
      "stit": 7428,
      "wie": 7429,
      "socks": 7430,
      "ety": 7431,
      "lif": 7432,
      "liar": 7433,
      "limit": 7434,
      "rome": 7435,
      "rose": 7436,
      "alarm": 7437,
      "rious": 7438,
      "hated": 7439,
      "cope": 7440,
      "ambul": 7441,
      "tire": 7442,
      "imit": 7443,
      "iest": 7444,
      "Marina": 7445,
      "Jos": 7446,
      "ppers": 7447,
      "Anca": 7448,
      "safer": 7449,
      "proced": 7450,
      "Chan": 7451,
      "agne": 7452,
      "exist": 7453,
      "rise": 7454,
      "file_link": 7455,
      "perform": 7456,
      "poin": 7457,
      "items": 7458,
      "ives": 7459,
      "spaghetti": 7460,
      "eev": 7461,
      "tonite": 7462,
      "araoke": 7463,
      "buys": 7464,
      "Donnie": 7465,
      "overwhel": 7466,
      "Leanne": 7467,
      "gang": 7468,
      "Della": 7469,
      "applying": 7470,
      "cious": 7471,
      "dislike": 7472,
      "discovered": 7473,
      "court": 7474,
      "paign": 7475,
      "apt": 7476,
      "complaint": 7477,
      "joined": 7478,
      "Gr8": 7479,
      "angel": 7480,
      "jeans": 7481,
      "Help": 7482,
      "Carolina": 7483,
      "Jacek": 7484,
      "uffy": 7485,
      "sites": 7486,
      "LOVE": 7487,
      "ignoring": 7488,
      "Rosemary": 7489,
      "landing": 7490,
      "normally": 7491,
      "walked": 7492,
      "Abi": 7493,
      "Julius": 7494,
      "doctors": 7495,
      "parked": 7496,
      "links": 7497,
      "clubs": 7498,
      "reminding": 7499,
      "yyy": 7500,
      "Lovely": 7501,
      "ixie": 7502,
      "laws": 7503,
      "Russell": 7504,
      "Douglas": 7505,
      "engine": 7506,
      "holding": 7507,
      "appear": 7508,
      "grades": 7509,
      "literature": 7510,
      "HAHAHA": 7511,
      "promoted": 7512,
      "programme": 7513,
      "tempt": 7514,
      "cosmetics": 7515,
      "Turkey": 7516,
      "vegetarian": 7517,
      "fruits": 7518,
      "Lexie": 7519,
      "candid": 7520,
      "adopt": 7521,
      "bowling": 7522,
      "Baby": 7523,
      "Collin": 7524,
      "Collins": 7525,
      "disappeared": 7526,
      "Avengers": 7527,
      "princess": 7528,
      "economy": 7529,
      "emotional": 7530,
      "influence": 7531,
      "streets": 7532,
      "remote": 7533,
      "Ikea": 7534,
      "Curtis": 7535,
      "'?": 7536,
      ".\"": 7537,
      "2nite": 7538,
      "43": 7539,
      "98": 7540,
      ":‑": 7541,
      ">.": 7542,
      "BO": 7543,
      "Bible": 7544,
      "Cent": 7545,
      "Darek": 7546,
      "Gri": 7547,
      "LY": 7548,
      "Las": 7549,
      "Mother": 7550,
      "Mash": 7551,
      "Minnie": 7552,
      "Nar": 7553,
      "Os": 7554,
      "Odin": 7555,
      "Pick": 7556,
      "PLE": 7557,
      "Rep": 7558,
      "Sask": 7559,
      "Saw": 7560,
      "THAN": 7561,
      "Vienna": 7562,
      "blow": 7563,
      "ell": 7564,
      "greet": 7565,
      "houses": 7566,
      "ky": 7567,
      "kins": 7568,
      "tan": 7569,
      "vit": 7570,
      "ware": 7571,
      "yton": 7572,
      "threat": 7573,
      "aning": 7574,
      "relig": 7575,
      "towel": 7576,
      "stro": 7577,
      "ician": 7578,
      "icja": 7579,
      "edit": 7580,
      "lize": 7581,
      "acon": 7582,
      "accus": 7583,
      "uten": 7584,
      "utter": 7585,
      "riz": 7586,
      "rion": 7587,
      "locked": 7588,
      "aman": 7589,
      "susp": 7590,
      "Jolene": 7591,
      "fection": 7592,
      "induction": 7593,
      "demo": 7594,
      "delight": 7595,
      "ilty": 7596,
      "cony": 7597,
      "folder": 7598,
      "alker": 7599,
      "Alene": 7600,
      "Alicja": 7601,
      "Christy": 7602,
      "Emmy": 7603,
      "gr8": 7604,
      "minis": 7605,
      "clus": 7606,
      "shock": 7607,
      "Deal": 7608,
      "massage": 7609,
      "tless": 7610,
      "courses": 7611,
      "Laurel": 7612,
      "trips": 7613,
      "hopeless": 7614,
      "Melinda": 7615,
      "Aron": 7616,
      "arrival": 7617,
      "Freddy": 7618,
      "Helene": 7619,
      "Aggie": 7620,
      "strate": 7621,
      "Tonya": 7622,
      "despite": 7623,
      "farm": 7624,
      "Such": 7625,
      "Karla": 7626,
      "feelings": 7627,
      "prior": 7628,
      "Francine": 7629,
      "genius": 7630,
      "deter": 7631,
      "contacting": 7632,
      "contacted": 7633,
      "sensitive": 7634,
      "addic": 7635,
      "spots": 7636,
      "viously": 7637,
      "mode": 7638,
      "rule": 7639,
      "bottom": 7640,
      "19th": 7641,
      "suitable": 7642,
      "tutor": 7643,
      "lectures": 7644,
      "replied": 7645,
      ":)))": 7646,
      "Getting": 7647,
      "hostel": 7648,
      "Gillian": 7649,
      "colors": 7650,
      "kicked": 7651,
      "shifts": 7652,
      "regularly": 7653,
      "Nikki": 7654,
      "instructor": 7655,
      "instructions": 7656,
      "harsh": 7657,
      "journal": 7658,
      "tomato": 7659,
      "Sisi": 7660,
      "factory": 7661,
      "jumping": 7662,
      "euros": 7663,
      "trees": 7664,
      "tricky": 7665,
      "realized": 7666,
      "documentary": 7667,
      "circum": 7668,
      "Jarod": 7669,
      "ignore": 7670,
      "pumpkin": 7671,
      "Payton": 7672,
      "Angella": 7673,
      "companies": 7674,
      "Obviously": 7675,
      "audience": 7676,
      "consult": 7677,
      "shelter": 7678,
      "above": 7679,
      "Celeste": 7680,
      "Prague": 7681,
      "lonely": 7682,
      "devastated": 7683,
      "ingredients": 7684,
      "blonde": 7685,
      "Virginia": 7686,
      "sharp": 7687,
      "commercial": 7688,
      "umbrella": 7689,
      "THANK": 7690,
      "Ask": 7691,
      "Bren": 7692,
      "Brie": 7693,
      "DO": 7694,
      "Dimit": 7695,
      "Easter": 7696,
      "Icel": 7697,
      "Jones": 7698,
      "Kirsty": 7699,
      "Lonya": 7700,
      "Mall": 7701,
      "Ni": 7702,
      "Pris": 7703,
      "RU": 7704,
      "Tia": 7705,
      "Tube": 7706,
      "YY": 7707,
      "Zuri": 7708,
      "ially": 7709,
      "kn": 7710,
      "mart": 7711,
      "pher": 7712,
      "piz": 7713,
      "rus": 7714,
      "witch": 7715,
      "thum": 7716,
      "ined": 7717,
      "recall": 7718,
      "isine": 7719,
      "enge": 7720,
      "asia": 7721,
      "wia": 7722,
      "seven": 7723,
      "ett": 7724,
      "fornia": 7725,
      "Marian": 7726,
      "shine": 7727,
      "feet": 7728,
      "shelf": 7729,
      "unhappy": 7730,
      "unfair": 7731,
      "thered": 7732,
      "Noe": 7733,
      "gotten": 7734,
      "background": 7735,
      "Janny": 7736,
      "trous": 7737,
      "wondered": 7738,
      "Keen": 7739,
      "storage": 7740,
      "foreign": 7741,
      "hired": 7742,
      "ohh": 7743,
      "drugs": 7744,
      "Mae": 7745,
      "function": 7746,
      "Stud": 7747,
      "30pm": 7748,
      "ordinary": 7749,
      "Shut": 7750,
      "litter": 7751,
      "aww": 7752,
      "Melvin": 7753,
      "cado": 7754,
      "azz": 7755,
      "?!?": 7756,
      "airbnb": 7757,
      "casual": 7758,
      "drill": 7759,
      "foundation": 7760,
      "Susanne": 7761,
      "Ronal": 7762,
      "luckily": 7763,
      "furious": 7764,
      "Lizzie": 7765,
      "posting": 7766,
      "passing": 7767,
      "organised": 7768,
      "Kenzie": 7769,
      "mush": 7770,
      "Peyton": 7771,
      "burnt": 7772,
      "Unless": 7773,
      "teachers": 7774,
      "safely": 7775,
      "cried": 7776,
      "Mercy": 7777,
      "Leonard": 7778,
      "REALLY": 7779,
      "finger": 7780,
      "panick": 7781,
      "Hallie": 7782,
      "Kaylee": 7783,
      "boots": 7784,
      "balcony": 7785,
      "Tessy": 7786,
      "possibility": 7787,
      "unexpected": 7788,
      "route": 7789,
      "colleague": 7790,
      "materials": 7791,
      "Friends": 7792,
      "silent": 7793,
      "Cassie": 7794,
      "................................": 7795,
      "scratch": 7796,
      "mirror": 7797,
      "rupt": 7798,
      "gaming": 7799,
      "Wonder": 7800,
      "tension": 7801,
      "rubbish": 7802,
      "Hurry": 7803,
      "Auntie": 7804,
      "adorable": 7805,
      "pharmacy": 7806,
      "Bojana": 7807,
      "architecture": 7808,
      "Certain": 7809,
      "Hobbs": 7810,
      "Fedora": 7811,
      "Iceland": 7812,
      "(^": 7813,
      "2morrow": 7814,
      "99": 7815,
      "AJ": 7816,
      "Aren": 7817,
      "Back": 7818,
      "Bald": 7819,
      "DON": 7820,
      "ED": 7821,
      "Fing": 7822,
      "Gust": 7823,
      "Grey": 7824,
      "Gino": 7825,
      "Gigi": 7826,
      "Homer": 7827,
      "MY": 7828,
      "Rash": 7829,
      "Square": 7830,
      "Tro": 7831,
      "Tal": 7832,
      "Viet": 7833,
      "WW": 7834,
      "aat": 7835,
      "ahahah": 7836,
      "awake": 7837,
      "bub": 7838,
      "cate": 7839,
      "fina": 7840,
      "hub": 7841,
      "harm": 7842,
      "kla": 7843,
      "karaoke": 7844,
      "pin": 7845,
      "ping": 7846,
      "pad": 7847,
      "pig": 7848,
      "pets": 7849,
      "piss": 7850,
      "tou": 7851,
      "😁😁": 7852,
      "iner": 7853,
      "release": 7854,
      "remain": 7855,
      "tose": 7856,
      "ingo": 7857,
      "arily": 7858,
      "itions": 7859,
      "sof": 7860,
      "sooooo": 7861,
      "acie": 7862,
      "core": 7863,
      "abs": 7864,
      "teo": 7865,
      "Marissa": 7866,
      "ferences": 7867,
      "maid": 7868,
      "Thekla": 7869,
      "omb": 7870,
      "tast": 7871,
      "Chick": 7872,
      "Chica": 7873,
      "workout": 7874,
      "owes": 7875,
      "precious": 7876,
      "affect": 7877,
      "poo": 7878,
      "Johna": 7879,
      "photogra": 7880,
      "scene": 7881,
      "screw": 7882,
      "brush": 7883,
      "tram": 7884,
      "Bey": 7885,
      "Patrik": 7886,
      "izes": 7887,
      "Dot": 7888,
      "mony": 7889,
      "Matteo": 7890,
      "Meggy": 7891,
      "Jem": 7892,
      "nerd": 7893,
      "Isis": 7894,
      "Start": 7895,
      "Arlene": 7896,
      "classic": 7897,
      "turkey": 7898,
      "breath": 7899,
      "keyboard": 7900,
      "ggies": 7901,
      "kinderg": 7902,
      "sweat": 7903,
      "skating": 7904,
      "passport": 7905,
      "xDDD": 7906,
      "singer": 7907,
      "crew": 7908,
      "Phone": 7909,
      "Team": 7910,
      "Camila": 7911,
      "Lynd": 7912,
      "Juliana": 7913,
      "crash": 7914,
      "umpy": 7915,
      "corpor": 7916,
      "luv": 7917,
      "Shame": 7918,
      "Shaun": 7919,
      "Brendon": 7920,
      "ashamed": 7921,
      "doors": 7922,
      "uuu": 7923,
      "campaign": 7924,
      "legal": 7925,
      "doub": 7926,
      "Gabriela": 7927,
      "figured": 7928,
      "Bonny": 7929,
      "Lucie": 7930,
      "Calm": 7931,
      "Miller": 7932,
      "Linn": 7933,
      "Nadine": 7934,
      "Jodi": 7935,
      "Lilah": 7936,
      "growing": 7937,
      "witter": 7938,
      "mixed": 7939,
      "Japanese": 7940,
      "Tonight": 7941,
      "equip": 7942,
      "birds": 7943,
      "announce": 7944,
      "Viki": 7945,
      "electricity": 7946,
      "pillow": 7947,
      "flex": 7948,
      "Garrett": 7949,
      "Makayla": 7950,
      "adventure": 7951,
      "Eugene": 7952,
      "Faye": 7953,
      "multi": 7954,
      "injured": 7955,
      "perfume": 7956,
      "Interesting": 7957,
      "Australia": 7958,
      "cafeteria": 7959,
      "Certainly": 7960,
      "Fingers": 7961,
      "Chicago": 7962,
      "26": 7963,
      "37": 7964,
      "><": 7965,
      "Brent": 7966,
      "Cur": 7967,
      "Darry": 7968,
      "Easy": 7969,
      "Lake": 7970,
      "Later": 7971,
      "Pit": 7972,
      "Ria": 7973,
      "Sun": 7974,
      "Spl": 7975,
      "Szy": 7976,
      "Top": 7977,
      "Trent": 7978,
      "Twitter": 7979,
      "Wr": 7980,
      "Zac": 7981,
      "^)": 7982,
      "biz": 7983,
      "bang": 7984,
      "bug": 7985,
      "bille": 7986,
      "cities": 7987,
      "cakes": 7988,
      "gross": 7989,
      "hugs": 7990,
      "itha": 7991,
      "marry": 7992,
      "nar": 7993,
      "nandez": 7994,
      "ote": 7995,
      "vio": 7996,
      "yi": 7997,
      "👏👏": 7998,
      "thn": 7999
    },
    "merges": [
      [
        "t",
        "h"
      ],
      [
        "i",
        "n"
      ],
      [
        "a",
        "n"
      ],
      [
        "o",
        "u"
      ],
      [
        "r",
        "e"
      ],
      [
        "o",
        "n"
      ],
      [
        "e",
        "r"
      ],
      [
        "a",
        "t"
      ],
      [
        "t",
        "o"
      ],
      [
        "th",
        "e"
      ],
      [
        "l",
        "l"
      ],
      [
        "in",
        "g"
      ],
      [
        "m",
        "e"
      ],
      [
        "i",
        "s"
      ],
      [
        "o",
        "r"
      ],
      [
        "a",
        "r"
      ],
      [
        "i",
        "t"
      ],
      [
        "y",
        "ou"
      ],
      [
        "e",
        "n"
      ],
      [
        "h",
        "e"
      ],
      [
        "s",
        "t"
      ],
      [
        "l",
        "e"
      ],
      [
        "h",
        "a"
      ],
      [
        "an",
        "d"
      ],
      [
        "v",
        "e"
      ],
      [
        "a",
        "y"
      ],
      [
        "n",
        "o"
      ],
      [
        "b",
        "e"
      ],
      [
        "a",
        "s"
      ],
      [
        "i",
        "c"
      ],
      [
        "e",
        "s"
      ],
      [
        "e",
        "d"
      ],
      [
        "w",
        "i"
      ],
      [
        "s",
        "o"
      ],
      [
        "s",
        "e"
      ],
      [
        "g",
        "o"
      ],
      [
        "e",
        "t"
      ],
      [
        "w",
        "e"
      ],
      [
        "l",
        "i"
      ],
      [
        "f",
        "or"
      ],
      [
        "h",
        "o"
      ],
      [
        "a",
        "c"
      ],
      [
        "r",
        "o"
      ],
      [
        "k",
        "e"
      ],
      [
        "a",
        "l"
      ],
      [
        "i",
        "d"
      ],
      [
        "o",
        "f"
      ],
      [
        "u",
        "t"
      ],
      [
        ".",
        "."
      ],
      [
        "a",
        "ll"
      ],
      [
        "n",
        "e"
      ],
      [
        "a",
        "re"
      ],
      [
        "g",
        "h"
      ],
      [
        "l",
        "d"
      ],
      [
        "r",
        "i"
      ],
      [
        "th",
        "at"
      ],
      [
        "l",
        "o"
      ],
      [
        "h",
        "at"
      ],
      [
        "d",
        "o"
      ],
      [
        "c",
        "o"
      ],
      [
        "a",
        "d"
      ],
      [
        "a",
        "m"
      ],
      [
        "l",
        "y"
      ],
      [
        "wi",
        "ll"
      ],
      [
        "a",
        "b"
      ],
      [
        "no",
        "w"
      ],
      [
        "ou",
        "t"
      ],
      [
        "ha",
        "ve"
      ],
      [
        "o",
        "k"
      ],
      [
        "c",
        "h"
      ],
      [
        "n",
        "d"
      ],
      [
        "t",
        "i"
      ],
      [
        "gh",
        "t"
      ],
      [
        "v",
        "er"
      ],
      [
        "i",
        "m"
      ],
      [
        "i",
        "e"
      ],
      [
        "r",
        "y"
      ],
      [
        "on",
        "e"
      ],
      [
        "m",
        "y"
      ],
      [
        "wi",
        "th"
      ],
      [
        "b",
        "ut"
      ],
      [
        "ou",
        "ld"
      ],
      [
        "c",
        "an"
      ],
      [
        "d",
        "ay"
      ],
      [
        "s",
        "u"
      ],
      [
        "t",
        "e"
      ],
      [
        "i",
        "r"
      ],
      [
        "u",
        "st"
      ],
      [
        "o",
        "d"
      ],
      [
        "no",
        "t"
      ],
      [
        "so",
        "me"
      ],
      [
        "e",
        "l"
      ],
      [
        "k",
        "now"
      ],
      [
        "M",
        "ar"
      ],
      [
        "l",
        "a"
      ],
      [
        "an",
        "t"
      ],
      [
        "a",
        "h"
      ],
      [
        "w",
        "as"
      ],
      [
        "u",
        "s"
      ],
      [
        "t",
        "er"
      ],
      [
        "th",
        "ing"
      ],
      [
        "i",
        "f"
      ],
      [
        "h",
        "er"
      ],
      [
        "i",
        "ll"
      ],
      [
        "m",
        "o"
      ],
      [
        "en",
        "d"
      ],
      [
        "a",
        "u"
      ],
      [
        "in",
        "k"
      ],
      [
        "all",
        "y"
      ],
      [
        "th",
        "er"
      ],
      [
        "ab",
        "out"
      ],
      [
        "w",
        "hat"
      ],
      [
        "i",
        "a"
      ],
      [
        "w",
        "or"
      ],
      [
        "J",
        "o"
      ],
      [
        "s",
        "h"
      ],
      [
        "f",
        "e"
      ],
      [
        "d",
        "on"
      ],
      [
        "n",
        "a"
      ],
      [
        "at",
        "e"
      ],
      [
        "w",
        "h"
      ],
      [
        "r",
        "a"
      ],
      [
        "p",
        "e"
      ],
      [
        "th",
        "is"
      ],
      [
        "i",
        "on"
      ],
      [
        "an",
        "k"
      ],
      [
        "an",
        "y"
      ],
      [
        "g",
        "e"
      ],
      [
        "u",
        "p"
      ],
      [
        "m",
        "a"
      ],
      [
        "ic",
        "k"
      ],
      [
        "T",
        "he"
      ],
      [
        "p",
        "p"
      ],
      [
        "j",
        "ust"
      ],
      [
        "..",
        "."
      ],
      [
        "o",
        "m"
      ],
      [
        "A",
        "n"
      ],
      [
        "ac",
        "k"
      ],
      [
        "li",
        "ke"
      ],
      [
        "g",
        "et"
      ],
      [
        "s",
        "he"
      ],
      [
        "u",
        "n"
      ],
      [
        "i",
        "le"
      ],
      [
        "y",
        "e"
      ],
      [
        "in",
        "e"
      ],
      [
        "p",
        "l"
      ],
      [
        "the",
        "re"
      ],
      [
        "w",
        "ant"
      ],
      [
        "you",
        "r"
      ],
      [
        "th",
        "ink"
      ],
      [
        "c",
        "e"
      ],
      [
        "!",
        "!"
      ],
      [
        "en",
        "t"
      ],
      [
        "ti",
        "me"
      ],
      [
        "n",
        "t"
      ],
      [
        "s",
        "a"
      ],
      [
        "ou",
        "r"
      ],
      [
        "ic",
        "e"
      ],
      [
        "in",
        "d"
      ],
      [
        "H",
        "e"
      ],
      [
        "N",
        "o"
      ],
      [
        "t",
        "a"
      ],
      [
        "se",
        "e"
      ],
      [
        "d",
        "e"
      ],
      [
        "o",
        "l"
      ],
      [
        "ar",
        "t"
      ],
      [
        "the",
        "y"
      ],
      [
        "u",
        "r"
      ],
      [
        "c",
        "k"
      ],
      [
        "o",
        "b"
      ],
      [
        "p",
        "ro"
      ],
      [
        "go",
        "ing"
      ],
      [
        "C",
        "h"
      ],
      [
        "w",
        "ay"
      ],
      [
        "I",
        "t"
      ],
      [
        "i",
        "ght"
      ],
      [
        "d",
        "id"
      ],
      [
        "i",
        "l"
      ],
      [
        "he",
        "re"
      ],
      [
        "b",
        "o"
      ],
      [
        "wor",
        "k"
      ],
      [
        "ver",
        "y"
      ],
      [
        ":",
        ")"
      ],
      [
        "a",
        "g"
      ],
      [
        "e",
        "x"
      ],
      [
        "s",
        "s"
      ],
      [
        "co",
        "m"
      ],
      [
        "ne",
        "ed"
      ],
      [
        "Y",
        "ou"
      ],
      [
        "ro",
        "m"
      ],
      [
        "o",
        "w"
      ],
      [
        "r",
        "is"
      ],
      [
        "f",
        "ile"
      ],
      [
        "ha",
        "s"
      ],
      [
        "h",
        "is"
      ],
      [
        "ho",
        "w"
      ],
      [
        "A",
        "nd"
      ],
      [
        "f",
        "rom"
      ],
      [
        "go",
        "od"
      ],
      [
        "o",
        "p"
      ],
      [
        "W",
        "e"
      ],
      [
        "to",
        "o"
      ],
      [
        "u",
        "y"
      ],
      [
        "ar",
        "d"
      ],
      [
        "co",
        "me"
      ],
      [
        "es",
        "s"
      ],
      [
        "m",
        "or"
      ],
      [
        "file",
        "_"
      ],
      [
        "ro",
        "w"
      ],
      [
        "h",
        "im"
      ],
      [
        "go",
        "t"
      ],
      [
        "W",
        "hat"
      ],
      [
        "ou",
        "nd"
      ],
      [
        "v",
        "en"
      ],
      [
        "c",
        "on"
      ],
      [
        "e",
        "k"
      ],
      [
        "re",
        "ally"
      ],
      [
        "u",
        "e"
      ],
      [
        "w",
        "ould"
      ],
      [
        "id",
        "e"
      ],
      [
        "we",
        "ek"
      ],
      [
        "p",
        "er"
      ],
      [
        "T",
        "h"
      ],
      [
        "ne",
        "w"
      ],
      [
        "me",
        "et"
      ],
      [
        "m",
        "u"
      ],
      [
        "p",
        "re"
      ],
      [
        "c",
        "t"
      ],
      [
        "a",
        "f"
      ],
      [
        "ac",
        "e"
      ],
      [
        "ank",
        "s"
      ],
      [
        "T",
        "om"
      ],
      [
        "p",
        "o"
      ],
      [
        "the",
        "m"
      ],
      [
        "b",
        "er"
      ],
      [
        "re",
        "d"
      ],
      [
        "o",
        "ther"
      ],
      [
        "at",
        "ion"
      ],
      [
        "su",
        "re"
      ],
      [
        "c",
        "he"
      ],
      [
        "ha",
        "ha"
      ],
      [
        "Y",
        "e"
      ],
      [
        "re",
        "ad"
      ],
      [
        "it",
        "e"
      ],
      [
        "re",
        "at"
      ],
      [
        "u",
        "re"
      ],
      [
        "lo",
        "ok"
      ],
      [
        "in",
        "a"
      ],
      [
        "the",
        "n"
      ],
      [
        "b",
        "le"
      ],
      [
        "ri",
        "ght"
      ],
      [
        "b",
        "y"
      ],
      [
        "f",
        "o"
      ],
      [
        "i",
        "ve"
      ],
      [
        "wh",
        "en"
      ],
      [
        "sh",
        "ould"
      ],
      [
        "a",
        "v"
      ],
      [
        "al",
        "k"
      ],
      [
        "A",
        "l"
      ],
      [
        "L",
        "u"
      ],
      [
        "le",
        "t"
      ],
      [
        "i",
        "g"
      ],
      [
        "a",
        "ve"
      ],
      [
        "Jo",
        "h"
      ],
      [
        "mor",
        "row"
      ],
      [
        "u",
        "m"
      ],
      [
        "C",
        "ar"
      ],
      [
        "n",
        "y"
      ],
      [
        "to",
        "morrow"
      ],
      [
        "a",
        "me"
      ],
      [
        "b",
        "ack"
      ],
      [
        "he",
        "l"
      ],
      [
        "Joh",
        "n"
      ],
      [
        "on",
        "g"
      ],
      [
        "S",
        "he"
      ],
      [
        "x",
        "t"
      ],
      [
        "ac",
        "t"
      ],
      [
        "li",
        "e"
      ],
      [
        "F",
        "r"
      ],
      [
        "J",
        "u"
      ],
      [
        "mo",
        "re"
      ],
      [
        "p",
        "art"
      ],
      [
        "ho",
        "me"
      ],
      [
        "t",
        "y"
      ],
      [
        "S",
        "o"
      ],
      [
        "Ch",
        "ris"
      ],
      [
        "p",
        "ho"
      ],
      [
        "w",
        "a"
      ],
      [
        "pho",
        "to"
      ],
      [
        "mu",
        "ch"
      ],
      [
        "ha",
        "d"
      ],
      [
        "as",
        "k"
      ],
      [
        "ay",
        "be"
      ],
      [
        "u",
        "l"
      ],
      [
        "ta",
        "ke"
      ],
      [
        "as",
        "s"
      ],
      [
        "B",
        "ut"
      ],
      [
        "do",
        "es"
      ],
      [
        "s",
        "c"
      ],
      [
        "we",
        "ll"
      ],
      [
        "of",
        "f"
      ],
      [
        "c",
        "au"
      ],
      [
        "P",
        "et"
      ],
      [
        "O",
        "k"
      ],
      [
        "ou",
        "s"
      ],
      [
        "a",
        "st"
      ],
      [
        "be",
        "en"
      ],
      [
        "p",
        "le"
      ],
      [
        "i",
        "an"
      ],
      [
        "c",
        "ould"
      ],
      [
        "lo",
        "ve"
      ],
      [
        "af",
        "ter"
      ],
      [
        "Ye",
        "ah"
      ],
      [
        "Y",
        "es"
      ],
      [
        "to",
        "day"
      ],
      [
        "cau",
        "se"
      ],
      [
        "e",
        "p"
      ],
      [
        "i",
        "ke"
      ],
      [
        "t",
        "alk"
      ],
      [
        "some",
        "thing"
      ],
      [
        "ou",
        "gh"
      ],
      [
        "a",
        "in"
      ],
      [
        "me",
        "nt"
      ],
      [
        "H",
        "ow"
      ],
      [
        "p",
        "h"
      ],
      [
        "e",
        "very"
      ],
      [
        "ha",
        "pp"
      ],
      [
        "D",
        "an"
      ],
      [
        "s",
        "p"
      ],
      [
        "i",
        "ly"
      ],
      [
        "b",
        "r"
      ],
      [
        "E",
        "m"
      ],
      [
        "P",
        "au"
      ],
      [
        "s",
        "ay"
      ],
      [
        "e",
        "e"
      ],
      [
        "ll",
        "y"
      ],
      [
        "t",
        "on"
      ],
      [
        "T",
        "hat"
      ],
      [
        "J",
        "an"
      ],
      [
        "The",
        "y"
      ],
      [
        "wa",
        "it"
      ],
      [
        "or",
        "ry"
      ],
      [
        "S",
        "am"
      ],
      [
        "ye",
        "ah"
      ],
      [
        "t",
        "r"
      ],
      [
        "?",
        "?"
      ],
      [
        "f",
        "f"
      ],
      [
        "ic",
        "a"
      ],
      [
        "y",
        "es"
      ],
      [
        "W",
        "h"
      ],
      [
        "g",
        "reat"
      ],
      [
        "w",
        "on"
      ],
      [
        "la",
        "st"
      ],
      [
        "er",
        "s"
      ],
      [
        "is",
        "h"
      ],
      [
        "O",
        "h"
      ],
      [
        "th",
        "an"
      ],
      [
        "K",
        "ate"
      ],
      [
        "q",
        "u"
      ],
      [
        "c",
        "all"
      ],
      [
        "ar",
        "a"
      ],
      [
        "read",
        "y"
      ],
      [
        "ne",
        "xt"
      ],
      [
        "e",
        "ven"
      ],
      [
        "o",
        "o"
      ],
      [
        "n",
        "ing"
      ],
      [
        "be",
        "t"
      ],
      [
        "ou",
        "ght"
      ],
      [
        "as",
        "e"
      ],
      [
        "b",
        "uy"
      ],
      [
        "w",
        "ho"
      ],
      [
        "st",
        "ill"
      ],
      [
        "H",
        "i"
      ],
      [
        "ma",
        "ke"
      ],
      [
        "m",
        "an"
      ],
      [
        "f",
        "ri"
      ],
      [
        "w",
        "here"
      ],
      [
        "wh",
        "y"
      ],
      [
        "u",
        "ck"
      ],
      [
        "w",
        "at"
      ],
      [
        "c",
        "y"
      ],
      [
        "did",
        "n"
      ],
      [
        "or",
        "t"
      ],
      [
        "fri",
        "end"
      ],
      [
        "lo",
        "t"
      ],
      [
        "hel",
        "p"
      ],
      [
        "te",
        "ll"
      ],
      [
        "g",
        "r"
      ],
      [
        "J",
        "ack"
      ],
      [
        "B",
        "e"
      ],
      [
        "m",
        "in"
      ],
      [
        "be",
        "cause"
      ],
      [
        "A",
        "le"
      ],
      [
        "pl",
        "ace"
      ],
      [
        "Pet",
        "er"
      ],
      [
        ";",
        ")"
      ],
      [
        "Mar",
        "y"
      ],
      [
        "g",
        "uy"
      ],
      [
        "u",
        "d"
      ],
      [
        "J",
        "en"
      ],
      [
        "P",
        "at"
      ],
      [
        "R",
        "o"
      ],
      [
        "ab",
        "le"
      ],
      [
        "file_",
        "photo"
      ],
      [
        "a",
        "k"
      ],
      [
        "re",
        "e"
      ],
      [
        "ic",
        "h"
      ],
      [
        "ye",
        "ar"
      ],
      [
        "j",
        "o"
      ],
      [
        "K",
        "e"
      ],
      [
        "M",
        "ike"
      ],
      [
        "t",
        "ry"
      ],
      [
        "R",
        "ob"
      ],
      [
        "li",
        "a"
      ],
      [
        "th",
        "anks"
      ],
      [
        "D",
        "on"
      ],
      [
        "re",
        "st"
      ],
      [
        "Ale",
        "x"
      ],
      [
        "i",
        "z"
      ],
      [
        "o",
        "ver"
      ],
      [
        "D",
        "o"
      ],
      [
        "M",
        "on"
      ],
      [
        "A",
        "d"
      ],
      [
        "An",
        "na"
      ],
      [
        "t",
        "ing"
      ],
      [
        "i",
        "es"
      ],
      [
        "v",
        "ing"
      ],
      [
        "Pau",
        "l"
      ],
      [
        "c",
        "l"
      ],
      [
        "ti",
        "on"
      ],
      [
        "is",
        "t"
      ],
      [
        "w",
        "n"
      ],
      [
        "we",
        "re"
      ],
      [
        "g",
        "u"
      ],
      [
        "m",
        "ber"
      ],
      [
        "op",
        "le"
      ],
      [
        "fe",
        "el"
      ],
      [
        "L",
        "e"
      ],
      [
        "an",
        "s"
      ],
      [
        "m",
        "on"
      ],
      [
        "a",
        "ke"
      ],
      [
        "f",
        "in"
      ],
      [
        "want",
        "s"
      ],
      [
        "bo",
        "ok"
      ],
      [
        "l",
        "at"
      ],
      [
        "n",
        "ice"
      ],
      [
        "com",
        "ing"
      ],
      [
        "way",
        "s"
      ],
      [
        "does",
        "n"
      ],
      [
        "c",
        "ar"
      ],
      [
        "pe",
        "ople"
      ],
      [
        "m",
        "aybe"
      ],
      [
        "He",
        "y"
      ],
      [
        "l",
        "f"
      ],
      [
        "an",
        "na"
      ],
      [
        "M",
        "at"
      ],
      [
        "s",
        "on"
      ],
      [
        "ar",
        "y"
      ],
      [
        "b",
        "it"
      ],
      [
        "th",
        "a"
      ],
      [
        "s",
        "orry"
      ],
      [
        "G",
        "o"
      ],
      [
        "B",
        "r"
      ],
      [
        "re",
        "n"
      ],
      [
        "on",
        "ly"
      ],
      [
        "ble",
        "m"
      ],
      [
        "M",
        "e"
      ],
      [
        "f",
        "ind"
      ],
      [
        "We",
        "ll"
      ],
      [
        "Th",
        "anks"
      ],
      [
        "pro",
        "blem"
      ],
      [
        "W",
        "ill"
      ],
      [
        "g",
        "an"
      ],
      [
        "it",
        "y"
      ],
      [
        "ac",
        "h"
      ],
      [
        "Mar",
        "k"
      ],
      [
        "bet",
        "ter"
      ],
      [
        "n",
        "ight"
      ],
      [
        "s",
        "ho"
      ],
      [
        "u",
        "nd"
      ],
      [
        "m",
        "is"
      ],
      [
        "s",
        "to"
      ],
      [
        "ar",
        "ry"
      ],
      [
        "S",
        "te"
      ],
      [
        "L",
        "o"
      ],
      [
        "c",
        "ou"
      ],
      [
        "D",
        "e"
      ],
      [
        "al",
        "ready"
      ],
      [
        "fo",
        "re"
      ],
      [
        "s",
        "end"
      ],
      [
        "J",
        "e"
      ],
      [
        "a",
        "pp"
      ],
      [
        "m",
        "as"
      ],
      [
        "ag",
        "ain"
      ],
      [
        "s",
        "er"
      ],
      [
        "g",
        "ive"
      ],
      [
        "t",
        "w"
      ],
      [
        "part",
        "y"
      ],
      [
        "m",
        "m"
      ],
      [
        "ton",
        "ight"
      ],
      [
        "l",
        "ate"
      ],
      [
        "An",
        "n"
      ],
      [
        "st",
        "art"
      ],
      [
        "t",
        "ra"
      ],
      [
        "f",
        "ir"
      ],
      [
        "B",
        "en"
      ],
      [
        "n",
        "er"
      ],
      [
        "v",
        "is"
      ],
      [
        "ll",
        "e"
      ],
      [
        "r",
        "ic"
      ],
      [
        "h",
        "i"
      ],
      [
        "as",
        "on"
      ],
      [
        "b",
        "us"
      ],
      [
        "c",
        "i"
      ],
      [
        "b",
        "ab"
      ],
      [
        "pl",
        "ay"
      ],
      [
        "wat",
        "ch"
      ],
      [
        "J",
        "ust"
      ],
      [
        "re",
        "g"
      ],
      [
        "any",
        "thing"
      ],
      [
        "st",
        "er"
      ],
      [
        "1",
        "0"
      ],
      [
        "ir",
        "l"
      ],
      [
        "O",
        "li"
      ],
      [
        "al",
        "ways"
      ],
      [
        "l",
        "ong"
      ],
      [
        "t",
        "le"
      ],
      [
        "ide",
        "a"
      ],
      [
        "me",
        "an"
      ],
      [
        "ch",
        "an"
      ],
      [
        "che",
        "ck"
      ],
      [
        "o",
        "h"
      ],
      [
        "g",
        "if"
      ],
      [
        "M",
        "ic"
      ],
      [
        "C",
        "an"
      ],
      [
        "d",
        "is"
      ],
      [
        "T",
        "im"
      ],
      [
        "Jan",
        "e"
      ],
      [
        "d",
        "r"
      ],
      [
        "S",
        "ure"
      ],
      [
        "the",
        "ir"
      ],
      [
        "al",
        "so"
      ],
      [
        "G",
        "e"
      ],
      [
        "ame",
        "s"
      ],
      [
        "R",
        "e"
      ],
      [
        "guy",
        "s"
      ],
      [
        "u",
        "b"
      ],
      [
        "I",
        "s"
      ],
      [
        "M",
        "a"
      ],
      [
        "Ch",
        "ar"
      ],
      [
        "happ",
        "en"
      ],
      [
        "J",
        "im"
      ],
      [
        "in",
        "t"
      ],
      [
        "st",
        "ay"
      ],
      [
        "an",
        "n"
      ],
      [
        "f",
        "un"
      ],
      [
        "be",
        "fore"
      ],
      [
        "c",
        "our"
      ],
      [
        "f",
        "ine"
      ],
      [
        "!!",
        "!"
      ],
      [
        "i",
        "o"
      ],
      [
        "i",
        "ous"
      ],
      [
        "v",
        "ia"
      ],
      [
        "re",
        "ss"
      ],
      [
        "day",
        "s"
      ],
      [
        "h",
        "our"
      ],
      [
        "le",
        "y"
      ],
      [
        "p",
        "m"
      ],
      [
        "br",
        "ing"
      ],
      [
        "H",
        "a"
      ],
      [
        "g",
        "irl"
      ],
      [
        "ar",
        "ound"
      ],
      [
        "so",
        "on"
      ],
      [
        "er",
        "t"
      ],
      [
        "to",
        "r"
      ],
      [
        "fir",
        "st"
      ],
      [
        "th",
        "ought"
      ],
      [
        "is",
        "a"
      ],
      [
        "S",
        "t"
      ],
      [
        "A",
        "re"
      ],
      [
        "y",
        "et"
      ],
      [
        "3",
        "0"
      ],
      [
        "one",
        "y"
      ],
      [
        "cour",
        "se"
      ],
      [
        "or",
        "d"
      ],
      [
        ":",
        "("
      ],
      [
        "p",
        "a"
      ],
      [
        "L",
        "au"
      ],
      [
        "b",
        "ro"
      ],
      [
        "b",
        "ig"
      ],
      [
        "ll",
        "a"
      ],
      [
        "ound",
        "s"
      ],
      [
        "b",
        "ad"
      ],
      [
        "w",
        "r"
      ],
      [
        "meet",
        "ing"
      ],
      [
        "me",
        "mber"
      ],
      [
        "a",
        "il"
      ],
      [
        "gu",
        "ess"
      ],
      [
        "p",
        "are"
      ],
      [
        "s",
        "pe"
      ],
      [
        "s",
        "ent"
      ],
      [
        "week",
        "end"
      ],
      [
        "The",
        "re"
      ],
      [
        "se",
        "lf"
      ],
      [
        "C",
        "o"
      ],
      [
        "S",
        "h"
      ],
      [
        "p",
        "ick"
      ],
      [
        "lo",
        "l"
      ],
      [
        "lat",
        "er"
      ],
      [
        "J",
        "ess"
      ],
      [
        "do",
        "ing"
      ],
      [
        "Ad",
        "am"
      ],
      [
        "it",
        "s"
      ],
      [
        "l",
        "it"
      ],
      [
        "v",
        "in"
      ],
      [
        "er",
        "ry"
      ],
      [
        "j",
        "ob"
      ],
      [
        "is",
        "e"
      ],
      [
        "o",
        "ld"
      ],
      [
        "No",
        "t"
      ],
      [
        "t",
        "ri"
      ],
      [
        "ho",
        "pe"
      ],
      [
        "y",
        "l"
      ],
      [
        "v",
        "ie"
      ],
      [
        "v",
        "a"
      ],
      [
        "Ge",
        "or"
      ],
      [
        "min",
        "ut"
      ],
      [
        "S",
        "ar"
      ],
      [
        "mo",
        "st"
      ],
      [
        "H",
        "ave"
      ],
      [
        "ind",
        "a"
      ],
      [
        "a",
        "p"
      ],
      [
        "a",
        "ther"
      ],
      [
        "ar",
        "k"
      ],
      [
        "od",
        "y"
      ],
      [
        "Dan",
        "ie"
      ],
      [
        "d",
        "i"
      ],
      [
        "p",
        "ic"
      ],
      [
        "do",
        "wn"
      ],
      [
        "Sar",
        "ah"
      ],
      [
        "o",
        "se"
      ],
      [
        "Go",
        "od"
      ],
      [
        "Fr",
        "ank"
      ],
      [
        "u",
        "ally"
      ],
      [
        "k",
        "es"
      ],
      [
        "ple",
        "ase"
      ],
      [
        "Jo",
        "sh"
      ],
      [
        "Wh",
        "y"
      ],
      [
        "be",
        "st"
      ],
      [
        "J",
        "ames"
      ],
      [
        "S",
        "e"
      ],
      [
        "pl",
        "an"
      ],
      [
        "mon",
        "th"
      ],
      [
        "tw",
        "o"
      ],
      [
        "ne",
        "ver"
      ],
      [
        "V",
        "ic"
      ],
      [
        "And",
        "re"
      ],
      [
        "D",
        "av"
      ],
      [
        "N",
        "e"
      ],
      [
        "le",
        "s"
      ],
      [
        "th",
        "ough"
      ],
      [
        "re",
        "nt"
      ],
      [
        "s",
        "ed"
      ],
      [
        "ad",
        "e"
      ],
      [
        "se",
        "en"
      ],
      [
        "f",
        "t"
      ],
      [
        "O",
        "K"
      ],
      [
        "com",
        "p"
      ],
      [
        "re",
        "member"
      ],
      [
        "g",
        "on"
      ],
      [
        "c",
        "are"
      ],
      [
        "J",
        "ake"
      ],
      [
        "to",
        "ld"
      ],
      [
        "Em",
        "ma"
      ],
      [
        "G",
        "reg"
      ],
      [
        "a",
        "ge"
      ],
      [
        "k",
        "id"
      ],
      [
        "and",
        "a"
      ],
      [
        "q",
        "ue"
      ],
      [
        "Mat",
        "t"
      ],
      [
        "a",
        "w"
      ],
      [
        "de",
        "c"
      ],
      [
        "e",
        "ar"
      ],
      [
        "sc",
        "ho"
      ],
      [
        "Dav",
        "id"
      ],
      [
        "c",
        "ho"
      ],
      [
        "I",
        "n"
      ],
      [
        "i",
        "am"
      ],
      [
        "m",
        "ight"
      ],
      [
        "co",
        "ol"
      ],
      [
        "M",
        "el"
      ],
      [
        "p",
        "r"
      ],
      [
        "A",
        "r"
      ],
      [
        "Chris",
        "t"
      ],
      [
        "look",
        "ing"
      ],
      [
        "cl",
        "ass"
      ],
      [
        "jo",
        "in"
      ],
      [
        "K",
        "im"
      ],
      [
        "M",
        "aybe"
      ],
      [
        "gon",
        "na"
      ],
      [
        "id",
        "ay"
      ],
      [
        "Th",
        "ank"
      ],
      [
        "scho",
        "ol"
      ],
      [
        "d",
        "in"
      ],
      [
        "A",
        "m"
      ],
      [
        "s",
        "how"
      ],
      [
        "in",
        "v"
      ],
      [
        "happ",
        "y"
      ],
      [
        "every",
        "thing"
      ],
      [
        "k",
        "ing"
      ],
      [
        "vis",
        "it"
      ],
      [
        "m",
        "s"
      ],
      [
        "G",
        "r"
      ],
      [
        "p",
        "s"
      ],
      [
        "w",
        "ent"
      ],
      [
        "t",
        "s"
      ],
      [
        "wh",
        "ich"
      ],
      [
        "sa",
        "me"
      ],
      [
        "B",
        "ar"
      ],
      [
        "at",
        "ur"
      ],
      [
        "Mon",
        "ica"
      ],
      [
        "b",
        "ir"
      ],
      [
        "Jo",
        "e"
      ],
      [
        "file_",
        "gif"
      ],
      [
        "d",
        "if"
      ],
      [
        "g",
        "l"
      ],
      [
        "ro",
        "om"
      ],
      [
        "ster",
        "day"
      ],
      [
        "D",
        "id"
      ],
      [
        "ge",
        "ther"
      ],
      [
        "z",
        "a"
      ],
      [
        "to",
        "gether"
      ],
      [
        "an",
        "g"
      ],
      [
        "minut",
        "es"
      ],
      [
        "m",
        "ind"
      ],
      [
        "ha",
        "el"
      ],
      [
        "sa",
        "id"
      ],
      [
        "d",
        "u"
      ],
      [
        "j",
        "e"
      ],
      [
        "bab",
        "ly"
      ],
      [
        "Geor",
        "ge"
      ],
      [
        "H",
        "el"
      ],
      [
        "d",
        "y"
      ],
      [
        ":",
        "-"
      ],
      [
        "N",
        "ick"
      ],
      [
        "T",
        "r"
      ],
      [
        "he",
        "y"
      ],
      [
        "Mar",
        "tha"
      ],
      [
        "ou",
        "se"
      ],
      [
        "H",
        "arry"
      ],
      [
        "te",
        "rest"
      ],
      [
        "lit",
        "tle"
      ],
      [
        "e",
        "ver"
      ],
      [
        "Al",
        "ice"
      ],
      [
        "S",
        "us"
      ],
      [
        "fe",
        "ct"
      ],
      [
        "mor",
        "ning"
      ],
      [
        "x",
        "x"
      ],
      [
        "Danie",
        "l"
      ],
      [
        "Car",
        "ol"
      ],
      [
        "Em",
        "ily"
      ],
      [
        "u",
        "se"
      ],
      [
        "2",
        "0"
      ],
      [
        "J",
        "ac"
      ],
      [
        "An",
        "y"
      ],
      [
        "Jen",
        "ny"
      ],
      [
        "fe",
        "w"
      ],
      [
        "c",
        "lo"
      ],
      [
        "Lau",
        "ra"
      ],
      [
        "ar",
        "ri"
      ],
      [
        "H",
        "o"
      ],
      [
        "f",
        "ree"
      ],
      [
        "file_",
        "other"
      ],
      [
        "And",
        "y"
      ],
      [
        "s",
        "ha"
      ],
      [
        "are",
        "n"
      ],
      [
        "th",
        "y"
      ],
      [
        "thing",
        "s"
      ],
      [
        "e",
        "at"
      ],
      [
        "ye",
        "sterday"
      ],
      [
        "in",
        "terest"
      ],
      [
        "need",
        "s"
      ],
      [
        "F",
        "red"
      ],
      [
        "u",
        "ff"
      ],
      [
        "Fr",
        "iday"
      ],
      [
        "op",
        "h"
      ],
      [
        "on",
        "y"
      ],
      [
        "get",
        "ting"
      ],
      [
        "i",
        "ld"
      ],
      [
        "st",
        "and"
      ],
      [
        "want",
        "ed"
      ],
      [
        "I",
        "f"
      ],
      [
        "c",
        "a"
      ],
      [
        "su",
        "pp"
      ],
      [
        "p",
        "ort"
      ],
      [
        "..",
        ".."
      ],
      [
        "cou",
        "nt"
      ],
      [
        "m",
        "oney"
      ],
      [
        "a",
        "z"
      ],
      [
        "s",
        "it"
      ],
      [
        "bir",
        "th"
      ],
      [
        "wait",
        "ing"
      ],
      [
        "t",
        "ur"
      ],
      [
        "Lu",
        "cy"
      ],
      [
        "und",
        "er"
      ],
      [
        "Ma",
        "x"
      ],
      [
        "t",
[...]
